{
  "version": "1.0",
  "truncation": null,
  "padding": null,
  "added_tokens": [
    {
      "id": 0,
      "content": "<pad>",
      "single_word": false,
      "lstrip": false,
      "rstrip": false,
      "normalized": false,
      "special": true
    },
    {
      "id": 1,
      "content": "<unk>",
      "single_word": false,
      "lstrip": false,
      "rstrip": false,
      "normalized": false,
      "special": true
    },
    {
      "id": 2,
      "content": "<s>",
      "single_word": false,
      "lstrip": false,
      "rstrip": false,
      "normalized": false,
      "special": true
    },
    {
      "id": 3,
      "content": "</s>",
      "single_word": false,
      "lstrip": false,
      "rstrip": false,
      "normalized": false,
      "special": true
    }
  ],
  "normalizer": null,
  "pre_tokenizer": {
    "type": "Whitespace"
  },
  "post_processor": null,
  "decoder": null,
  "model": {
    "type": "BPE",
    "dropout": null,
    "unk_token": "<unk>",
    "continuing_subword_prefix": null,
    "end_of_word_suffix": null,
    "fuse_unk": false,
    "byte_fallback": false,
    "ignore_merges": false,
    "vocab": {
      "<pad>": 0,
      "<unk>": 1,
      "<s>": 2,
      "</s>": 3,
      "!": 4,
      "\"": 5,
      "$": 6,
      "%": 7,
      "&": 8,
      "'": 9,
      "(": 10,
      ")": 11,
      "+": 12,
      ",": 13,
      "-": 14,
      ".": 15,
      "/": 16,
      "0": 17,
      "1": 18,
      "2": 19,
      "3": 20,
      "4": 21,
      "5": 22,
      "6": 23,
      "7": 24,
      "8": 25,
      "9": 26,
      ":": 27,
      ";": 28,
      "?": 29,
      "@": 30,
      "A": 31,
      "B": 32,
      "C": 33,
      "D": 34,
      "E": 35,
      "F": 36,
      "G": 37,
      "H": 38,
      "I": 39,
      "J": 40,
      "K": 41,
      "L": 42,
      "M": 43,
      "N": 44,
      "O": 45,
      "P": 46,
      "Q": 47,
      "R": 48,
      "S": 49,
      "T": 50,
      "U": 51,
      "V": 52,
      "W": 53,
      "X": 54,
      "Y": 55,
      "Z": 56,
      "[": 57,
      "]": 58,
      "_": 59,
      "a": 60,
      "b": 61,
      "c": 62,
      "d": 63,
      "e": 64,
      "f": 65,
      "g": 66,
      "h": 67,
      "i": 68,
      "j": 69,
      "k": 70,
      "l": 71,
      "m": 72,
      "n": 73,
      "o": 74,
      "p": 75,
      "q": 76,
      "r": 77,
      "s": 78,
      "t": 79,
      "u": 80,
      "v": 81,
      "w": 82,
      "x": 83,
      "y": 84,
      "z": 85,
      "­": 86,
      "°": 87,
      "·": 88,
      "ß": 89,
      "à": 90,
      "á": 91,
      "ã": 92,
      "è": 93,
      "é": 94,
      "ì": 95,
      "í": 96,
      "ï": 97,
      "ò": 98,
      "ó": 99,
      "ù": 100,
      "ā": 101,
      "ę": 102,
      "ī": 103,
      "ł": 104,
      "ō": 105,
      "ū": 106,
      "ǎ": 107,
      "α": 108,
      "β": 109,
      "​": 110,
      "–": 111,
      "—": 112,
      "‘": 113,
      "’": 114,
      "“": 115,
      "”": 116,
      "•": 117,
      "…": 118,
      "‧": 119,
      "₣": 120,
      "€": 121,
      "⋯": 122,
      "☭": 123,
      "、": 124,
      "。": 125,
      "〇": 126,
      "《": 127,
      "》": 128,
      "「": 129,
      "」": 130,
      "『": 131,
      "』": 132,
      "一": 133,
      "丁": 134,
      "七": 135,
      "万": 136,
      "丈": 137,
      "三": 138,
      "上": 139,
      "下": 140,
      "不": 141,
      "与": 142,
      "丐": 143,
      "丑": 144,
      "专": 145,
      "且": 146,
      "世": 147,
      "丘": 148,
      "业": 149,
      "丛": 150,
      "东": 151,
      "丝": 152,
      "丟": 153,
      "丢": 154,
      "两": 155,
      "严": 156,
      "並": 157,
      "丧": 158,
      "个": 159,
      "丫": 160,
      "中": 161,
      "丰": 162,
      "串": 163,
      "临": 164,
      "丸": 165,
      "丹": 166,
      "为": 167,
      "主": 168,
      "丽": 169,
      "举": 170,
      "乃": 171,
      "久": 172,
      "么": 173,
      "义": 174,
      "之": 175,
      "乌": 176,
      "乍": 177,
      "乎": 178,
      "乏": 179,
      "乐": 180,
      "乒": 181,
      "乓": 182,
      "乔": 183,
      "乖": 184,
      "乘": 185,
      "乙": 186,
      "九": 187,
      "乞": 188,
      "也": 189,
      "习": 190,
      "乡": 191,
      "书": 192,
      "买": 193,
      "乱": 194,
      "乳": 195,
      "乾": 196,
      "亂": 197,
      "了": 198,
      "予": 199,
      "争": 200,
      "事": 201,
      "二": 202,
      "于": 203,
      "亏": 204,
      "云": 205,
      "互": 206,
      "五": 207,
      "井": 208,
      "亚": 209,
      "些": 210,
      "亜": 211,
      "亞": 212,
      "亡": 213,
      "亢": 214,
      "交": 215,
      "亥": 216,
      "亦": 217,
      "产": 218,
      "亨": 219,
      "亩": 220,
      "享": 221,
      "京": 222,
      "亭": 223,
      "亮": 224,
      "亲": 225,
      "亵": 226,
      "人": 227,
      "亿": 228,
      "什": 229,
      "仁": 230,
      "仅": 231,
      "仆": 232,
      "仇": 233,
      "今": 234,
      "介": 235,
      "仍": 236,
      "从": 237,
      "仓": 238,
      "仔": 239,
      "他": 240,
      "仗": 241,
      "付": 242,
      "仙": 243,
      "代": 244,
      "令": 245,
      "以": 246,
      "仨": 247,
      "仪": 248,
      "们": 249,
      "仰": 250,
      "件": 251,
      "价": 252,
      "任": 253,
      "份": 254,
      "仿": 255,
      "企": 256,
      "伊": 257,
      "伍": 258,
      "伎": 259,
      "伏": 260,
      "伐": 261,
      "休": 262,
      "众": 263,
      "优": 264,
      "伙": 265,
      "会": 266,
      "伞": 267,
      "伟": 268,
      "传": 269,
      "伤": 270,
      "伦": 271,
      "伪": 272,
      "伯": 273,
      "估": 274,
      "伴": 275,
      "伸": 276,
      "伺": 277,
      "似": 278,
      "伽": 279,
      "但": 280,
      "佈": 281,
      "位": 282,
      "低": 283,
      "住": 284,
      "佐": 285,
      "佑": 286,
      "体": 287,
      "佔": 288,
      "何": 289,
      "余": 290,
      "佛": 291,
      "作": 292,
      "你": 293,
      "佣": 294,
      "佩": 295,
      "佬": 296,
      "佳": 297,
      "併": 298,
      "佷": 299,
      "使": 300,
      "侃": 301,
      "侄": 302,
      "來": 303,
      "侈": 304,
      "例": 305,
      "侍": 306,
      "侏": 307,
      "侖": 308,
      "供": 309,
      "依": 310,
      "侠": 311,
      "侣": 312,
      "侥": 313,
      "侦": 314,
      "侧": 315,
      "侨": 316,
      "侬": 317,
      "侮": 318,
      "侯": 319,
      "侵": 320,
      "侶": 321,
      "便": 322,
      "係": 323,
      "促": 324,
      "俄": 325,
      "俊": 326,
      "俗": 327,
      "俚": 328,
      "保": 329,
      "信": 330,
      "俩": 331,
      "俭": 332,
      "修": 333,
      "俯": 334,
      "俱": 335,
      "俺": 336,
      "俾": 337,
      "倆": 338,
      "倉": 339,
      "個": 340,
      "倍": 341,
      "們": 342,
      "倒": 343,
      "倔": 344,
      "倖": 345,
      "候": 346,
      "倚": 347,
      "借": 348,
      "倡": 349,
      "倦": 350,
      "倫": 351,
      "债": 352,
      "值": 353,
      "倾": 354,
      "假": 355,
      "偉": 356,
      "偏": 357,
      "偕": 358,
      "做": 359,
      "停": 360,
      "健": 361,
      "側": 362,
      "偵": 363,
      "偶": 364,
      "偷": 365,
      "偽": 366,
      "偿": 367,
      "傀": 368,
      "傅": 369,
      "傍": 370,
      "傑": 371,
      "傘": 372,
      "備": 373,
      "傢": 374,
      "储": 375,
      "催": 376,
      "傲": 377,
      "傳": 378,
      "債": 379,
      "傷": 380,
      "傻": 381,
      "傾": 382,
      "僅": 383,
      "像": 384,
      "僕": 385,
      "僚": 386,
      "僧": 387,
      "僱": 388,
      "僵": 389,
      "價": 390,
      "僻": 391,
      "儀": 392,
      "億": 393,
      "儉": 394,
      "儒": 395,
      "儘": 396,
      "償": 397,
      "儡": 398,
      "優": 399,
      "儲": 400,
      "儿": 401,
      "允": 402,
      "元": 403,
      "兄": 404,
      "充": 405,
      "兆": 406,
      "兇": 407,
      "先": 408,
      "光": 409,
      "克": 410,
      "兌": 411,
      "免": 412,
      "兑": 413,
      "兒": 414,
      "兔": 415,
      "党": 416,
      "兜": 417,
      "兢": 418,
      "入": 419,
      "內": 420,
      "全": 421,
      "兩": 422,
      "八": 423,
      "公": 424,
      "六": 425,
      "兰": 426,
      "共": 427,
      "关": 428,
      "兴": 429,
      "兵": 430,
      "其": 431,
      "具": 432,
      "典": 433,
      "兹": 434,
      "养": 435,
      "兼": 436,
      "兽": 437,
      "内": 438,
      "円": 439,
      "冈": 440,
      "冊": 441,
      "册": 442,
      "再": 443,
      "冒": 444,
      "写": 445,
      "军": 446,
      "农": 447,
      "冠": 448,
      "冥": 449,
      "冬": 450,
      "冯": 451,
      "冰": 452,
      "冲": 453,
      "决": 454,
      "况": 455,
      "冷": 456,
      "冻": 457,
      "净": 458,
      "凄": 459,
      "准": 460,
      "凉": 461,
      "凋": 462,
      "凌": 463,
      "凍": 464,
      "减": 465,
      "凑": 466,
      "凝": 467,
      "几": 468,
      "凡": 469,
      "凭": 470,
      "凯": 471,
      "凰": 472,
      "凱": 473,
      "凳": 474,
      "凶": 475,
      "凸": 476,
      "出": 477,
      "击": 478,
      "函": 479,
      "凿": 480,
      "刀": 481,
      "刃": 482,
      "分": 483,
      "切": 484,
      "刊": 485,
      "刍": 486,
      "刎": 487,
      "刑": 488,
      "划": 489,
      "列": 490,
      "刘": 491,
      "则": 492,
      "刚": 493,
      "创": 494,
      "初": 495,
      "删": 496,
      "判": 497,
      "別": 498,
      "利": 499,
      "刪": 500,
      "别": 501,
      "刮": 502,
      "到": 503,
      "制": 504,
      "刷": 505,
      "券": 506,
      "刹": 507,
      "刺": 508,
      "刻": 509,
      "剂": 510,
      "剃": 511,
      "則": 512,
      "削": 513,
      "前": 514,
      "剎": 515,
      "剑": 516,
      "剔": 517,
      "剖": 518,
      "剛": 519,
      "剝": 520,
      "剥": 521,
      "剧": 522,
      "剩": 523,
      "剪": 524,
      "副": 525,
      "割": 526,
      "創": 527,
      "劃": 528,
      "劇": 529,
      "劈": 530,
      "劉": 531,
      "劍": 532,
      "劑": 533,
      "力": 534,
      "劝": 535,
      "办": 536,
      "功": 537,
      "加": 538,
      "务": 539,
      "劣": 540,
      "动": 541,
      "助": 542,
      "努": 543,
      "劫": 544,
      "励": 545,
      "劲": 546,
      "劳": 547,
      "劵": 548,
      "势": 549,
      "勁": 550,
      "勃": 551,
      "勇": 552,
      "勉": 553,
      "勒": 554,
      "動": 555,
      "務": 556,
      "勝": 557,
      "勞": 558,
      "募": 559,
      "勢": 560,
      "勤": 561,
      "勵": 562,
      "勸": 563,
      "勺": 564,
      "勾": 565,
      "勿": 566,
      "匀": 567,
      "包": 568,
      "匆": 569,
      "匈": 570,
      "化": 571,
      "北": 572,
      "匙": 573,
      "匠": 574,
      "匪": 575,
      "匮": 576,
      "匯": 577,
      "匱": 578,
      "匹": 579,
      "区": 580,
      "医": 581,
      "匿": 582,
      "區": 583,
      "十": 584,
      "千": 585,
      "升": 586,
      "午": 587,
      "卉": 588,
      "半": 589,
      "华": 590,
      "协": 591,
      "卑": 592,
      "卒": 593,
      "卓": 594,
      "協": 595,
      "单": 596,
      "卖": 597,
      "南": 598,
      "博": 599,
      "卜": 600,
      "占": 601,
      "卡": 602,
      "卢": 603,
      "卧": 604,
      "卫": 605,
      "卯": 606,
      "印": 607,
      "危": 608,
      "即": 609,
      "却": 610,
      "卵": 611,
      "卷": 612,
      "卸": 613,
      "卹": 614,
      "卻": 615,
      "厂": 616,
      "厄": 617,
      "厅": 618,
      "历": 619,
      "厉": 620,
      "压": 621,
      "厌": 622,
      "厕": 623,
      "厘": 624,
      "厚": 625,
      "原": 626,
      "厢": 627,
      "厥": 628,
      "厦": 629,
      "厨": 630,
      "厭": 631,
      "厲": 632,
      "去": 633,
      "县": 634,
      "参": 635,
      "參": 636,
      "又": 637,
      "叉": 638,
      "及": 639,
      "友": 640,
      "双": 641,
      "反": 642,
      "发": 643,
      "叔": 644,
      "取": 645,
      "受": 646,
      "变": 647,
      "叙": 648,
      "叛": 649,
      "叠": 650,
      "叢": 651,
      "口": 652,
      "古": 653,
      "句": 654,
      "另": 655,
      "叨": 656,
      "只": 657,
      "叫": 658,
      "召": 659,
      "叭": 660,
      "叮": 661,
      "可": 662,
      "台": 663,
      "史": 664,
      "右": 665,
      "叶": 666,
      "号": 667,
      "司": 668,
      "叹": 669,
      "叼": 670,
      "吁": 671,
      "吃": 672,
      "各": 673,
      "合": 674,
      "吉": 675,
      "吊": 676,
      "吋": 677,
      "同": 678,
      "名": 679,
      "后": 680,
      "吐": 681,
      "向": 682,
      "吓": 683,
      "吖": 684,
      "吗": 685,
      "君": 686,
      "吝": 687,
      "吞": 688,
      "吟": 689,
      "否": 690,
      "吧": 691,
      "吨": 692,
      "吩": 693,
      "含": 694,
      "听": 695,
      "吭": 696,
      "吮": 697,
      "启": 698,
      "吱": 699,
      "吵": 700,
      "吸": 701,
      "吹": 702,
      "吻": 703,
      "吼": 704,
      "吾": 705,
      "呀": 706,
      "呃": 707,
      "呆": 708,
      "呈": 709,
      "告": 710,
      "呎": 711,
      "呐": 712,
      "呕": 713,
      "员": 714,
      "呢": 715,
      "呦": 716,
      "周": 717,
      "呱": 718,
      "味": 719,
      "呵": 720,
      "呻": 721,
      "呼": 722,
      "命": 723,
      "咀": 724,
      "咄": 725,
      "咆": 726,
      "咋": 727,
      "和": 728,
      "咎": 729,
      "咐": 730,
      "咒": 731,
      "咔": 732,
      "咕": 733,
      "咖": 734,
      "咗": 735,
      "咙": 736,
      "咦": 737,
      "咨": 738,
      "咪": 739,
      "咬": 740,
      "咭": 741,
      "咯": 742,
      "咱": 743,
      "咳": 744,
      "咸": 745,
      "咽": 746,
      "哀": 747,
      "品": 748,
      "哄": 749,
      "哆": 750,
      "哇": 751,
      "哈": 752,
      "响": 753,
      "哎": 754,
      "哏": 755,
      "哑": 756,
      "哒": 757,
      "哝": 758,
      "哟": 759,
      "員": 760,
      "哥": 761,
      "哦": 762,
      "哨": 763,
      "哩": 764,
      "哪": 765,
      "哭": 766,
      "哮": 767,
      "哲": 768,
      "哺": 769,
      "哼": 770,
      "唄": 771,
      "唇": 772,
      "唉": 773,
      "唐": 774,
      "唑": 775,
      "唔": 776,
      "唠": 777,
      "唤": 778,
      "唬": 779,
      "售": 780,
      "唯": 781,
      "唱": 782,
      "唷": 783,
      "唸": 784,
      "啁": 785,
      "商": 786,
      "啊": 787,
      "問": 788,
      "啕": 789,
      "啜": 790,
      "啞": 791,
      "啟": 792,
      "啡": 793,
      "啤": 794,
      "啥": 795,
      "啦": 796,
      "啪": 797,
      "啬": 798,
      "啰": 799,
      "啸": 800,
      "啾": 801,
      "喀": 802,
      "喂": 803,
      "喃": 804,
      "善": 805,
      "喇": 806,
      "喉": 807,
      "喊": 808,
      "喋": 809,
      "喏": 810,
      "喔": 811,
      "喘": 812,
      "喜": 813,
      "喝": 814,
      "喧": 815,
      "喪": 816,
      "喬": 817,
      "單": 818,
      "喱": 819,
      "喵": 820,
      "喷": 821,
      "喻": 822,
      "嗄": 823,
      "嗅": 824,
      "嗇": 825,
      "嗎": 826,
      "嗑": 827,
      "嗓": 828,
      "嗚": 829,
      "嗜": 830,
      "嗝": 831,
      "嗡": 832,
      "嗤": 833,
      "嗦": 834,
      "嗨": 835,
      "嗯": 836,
      "嗳": 837,
      "嗽": 838,
      "嘀": 839,
      "嘆": 840,
      "嘈": 841,
      "嘉": 842,
      "嘍": 843,
      "嘎": 844,
      "嘔": 845,
      "嘗": 846,
      "嘘": 847,
      "嘛": 848,
      "嘞": 849,
      "嘟": 850,
      "嘯": 851,
      "嘱": 852,
      "嘲": 853,
      "嘴": 854,
      "嘶": 855,
      "嘻": 856,
      "嘿": 857,
      "噁": 858,
      "噓": 859,
      "噗": 860,
      "噙": 861,
      "噜": 862,
      "噢": 863,
      "器": 864,
      "噩": 865,
      "噪": 866,
      "噬": 867,
      "噴": 868,
      "噸": 869,
      "噼": 870,
      "嚇": 871,
      "嚎": 872,
      "嚏": 873,
      "嚐": 874,
      "嚥": 875,
      "嚨": 876,
      "嚮": 877,
      "嚴": 878,
      "嚷": 879,
      "嚼": 880,
      "囉": 881,
      "囊": 882,
      "囑": 883,
      "囚": 884,
      "四": 885,
      "回": 886,
      "因": 887,
      "团": 888,
      "囪": 889,
      "园": 890,
      "困": 891,
      "囱": 892,
      "围": 893,
      "固": 894,
      "国": 895,
      "图": 896,
      "圆": 897,
      "圈": 898,
      "國": 899,
      "圍": 900,
      "園": 901,
      "圓": 902,
      "圖": 903,
      "團": 904,
      "土": 905,
      "圣": 906,
      "在": 907,
      "圭": 908,
      "地": 909,
      "场": 910,
      "圾": 911,
      "址": 912,
      "均": 913,
      "坊": 914,
      "坍": 915,
      "坏": 916,
      "坐": 917,
      "坑": 918,
      "块": 919,
      "坚": 920,
      "坛": 921,
      "坝": 922,
      "坞": 923,
      "坟": 924,
      "坠": 925,
      "坡": 926,
      "坦": 927,
      "坪": 928,
      "坯": 929,
      "垂": 930,
      "垃": 931,
      "垄": 932,
      "型": 933,
      "垒": 934,
      "垢": 935,
      "垫": 936,
      "垮": 937,
      "埃": 938,
      "埋": 939,
      "城": 940,
      "域": 941,
      "執": 942,
      "培": 943,
      "基": 944,
      "堂": 945,
      "堅": 946,
      "堆": 947,
      "堕": 948,
      "堡": 949,
      "堤": 950,
      "堪": 951,
      "報": 952,
      "場": 953,
      "堵": 954,
      "塊": 955,
      "塌": 956,
      "塑": 957,
      "塔": 958,
      "塗": 959,
      "塘": 960,
      "塞": 961,
      "塢": 962,
      "填": 963,
      "塵": 964,
      "塹": 965,
      "境": 966,
      "墅": 967,
      "墊": 968,
      "墓": 969,
      "墙": 970,
      "墜": 971,
      "增": 972,
      "墟": 973,
      "墨": 974,
      "墩": 975,
      "墮": 976,
      "墳": 977,
      "墻": 978,
      "壁": 979,
      "壇": 980,
      "壓": 981,
      "壘": 982,
      "壞": 983,
      "壟": 984,
      "壤": 985,
      "士": 986,
      "壮": 987,
      "壯": 988,
      "声": 989,
      "壳": 990,
      "壶": 991,
      "壺": 992,
      "壽": 993,
      "处": 994,
      "备": 995,
      "复": 996,
      "夏": 997,
      "夕": 998,
      "外": 999,
      "多": 1000,
      "夜": 1001,
      "够": 1002,
      "夠": 1003,
      "夢": 1004,
      "夥": 1005,
      "大": 1006,
      "天": 1007,
      "太": 1008,
      "夫": 1009,
      "夭": 1010,
      "央": 1011,
      "失": 1012,
      "头": 1013,
      "夷": 1014,
      "夸": 1015,
      "夹": 1016,
      "夺": 1017,
      "夾": 1018,
      "奄": 1019,
      "奇": 1020,
      "奈": 1021,
      "奉": 1022,
      "奋": 1023,
      "奏": 1024,
      "契": 1025,
      "奔": 1026,
      "奖": 1027,
      "套": 1028,
      "奢": 1029,
      "奥": 1030,
      "奧": 1031,
      "奪": 1032,
      "奬": 1033,
      "奮": 1034,
      "女": 1035,
      "奴": 1036,
      "奶": 1037,
      "奸": 1038,
      "她": 1039,
      "好": 1040,
      "如": 1041,
      "妄": 1042,
      "妆": 1043,
      "妇": 1044,
      "妈": 1045,
      "妒": 1046,
      "妓": 1047,
      "妖": 1048,
      "妙": 1049,
      "妝": 1050,
      "妞": 1051,
      "妥": 1052,
      "妨": 1053,
      "妮": 1054,
      "妳": 1055,
      "妹": 1056,
      "妻": 1057,
      "姆": 1058,
      "姊": 1059,
      "始": 1060,
      "姍": 1061,
      "姐": 1062,
      "姑": 1063,
      "姓": 1064,
      "委": 1065,
      "姚": 1066,
      "姜": 1067,
      "姥": 1068,
      "姨": 1069,
      "姻": 1070,
      "姿": 1071,
      "威": 1072,
      "娃": 1073,
      "娅": 1074,
      "娇": 1075,
      "娘": 1076,
      "娛": 1077,
      "娜": 1078,
      "娱": 1079,
      "娴": 1080,
      "娶": 1081,
      "娼": 1082,
      "婆": 1083,
      "婉": 1084,
      "婊": 1085,
      "婚": 1086,
      "婦": 1087,
      "婪": 1088,
      "婭": 1089,
      "婴": 1090,
      "婶": 1091,
      "媒": 1092,
      "媛": 1093,
      "媳": 1094,
      "媽": 1095,
      "嫁": 1096,
      "嫉": 1097,
      "嫌": 1098,
      "嫖": 1099,
      "嫩": 1100,
      "嬉": 1101,
      "嬰": 1102,
      "嬸": 1103,
      "子": 1104,
      "孑": 1105,
      "孔": 1106,
      "孕": 1107,
      "字": 1108,
      "存": 1109,
      "孙": 1110,
      "孝": 1111,
      "孟": 1112,
      "季": 1113,
      "孤": 1114,
      "学": 1115,
      "孩": 1116,
      "孫": 1117,
      "學": 1118,
      "宁": 1119,
      "它": 1120,
      "宅": 1121,
      "宇": 1122,
      "守": 1123,
      "安": 1124,
      "完": 1125,
      "宏": 1126,
      "宕": 1127,
      "宗": 1128,
      "官": 1129,
      "宙": 1130,
      "定": 1131,
      "宜": 1132,
      "宝": 1133,
      "实": 1134,
      "宠": 1135,
      "审": 1136,
      "客": 1137,
      "宣": 1138,
      "室": 1139,
      "宪": 1140,
      "宫": 1141,
      "宮": 1142,
      "宰": 1143,
      "害": 1144,
      "宴": 1145,
      "宵": 1146,
      "家": 1147,
      "容": 1148,
      "宽": 1149,
      "宾": 1150,
      "宿": 1151,
      "寂": 1152,
      "寄": 1153,
      "密": 1154,
      "富": 1155,
      "寒": 1156,
      "寓": 1157,
      "寝": 1158,
      "寞": 1159,
      "察": 1160,
      "寡": 1161,
      "寢": 1162,
      "實": 1163,
      "寧": 1164,
      "寨": 1165,
      "審": 1166,
      "寫": 1167,
      "寬": 1168,
      "寵": 1169,
      "寶": 1170,
      "寸": 1171,
      "对": 1172,
      "寺": 1173,
      "寻": 1174,
      "导": 1175,
      "寿": 1176,
      "封": 1177,
      "射": 1178,
      "将": 1179,
      "將": 1180,
      "專": 1181,
      "尊": 1182,
      "尋": 1183,
      "對": 1184,
      "導": 1185,
      "小": 1186,
      "少": 1187,
      "尔": 1188,
      "尖": 1189,
      "尘": 1190,
      "尚": 1191,
      "尝": 1192,
      "尤": 1193,
      "尬": 1194,
      "就": 1195,
      "尴": 1196,
      "尷": 1197,
      "尸": 1198,
      "尺": 1199,
      "尼": 1200,
      "尽": 1201,
      "尾": 1202,
      "尿": 1203,
      "局": 1204,
      "屁": 1205,
      "层": 1206,
      "居": 1207,
      "屈": 1208,
      "屉": 1209,
      "屋": 1210,
      "屌": 1211,
      "屍": 1212,
      "屎": 1213,
      "屏": 1214,
      "屑": 1215,
      "展": 1216,
      "屜": 1217,
      "属": 1218,
      "屠": 1219,
      "層": 1220,
      "履": 1221,
      "屬": 1222,
      "屯": 1223,
      "山": 1224,
      "屿": 1225,
      "岁": 1226,
      "岂": 1227,
      "岔": 1228,
      "岗": 1229,
      "岛": 1230,
      "岡": 1231,
      "岩": 1232,
      "岳": 1233,
      "岸": 1234,
      "峡": 1235,
      "峭": 1236,
      "峰": 1237,
      "島": 1238,
      "峻": 1239,
      "峽": 1240,
      "崇": 1241,
      "崎": 1242,
      "崔": 1243,
      "崖": 1244,
      "崗": 1245,
      "崙": 1246,
      "崛": 1247,
      "崩": 1248,
      "崭": 1249,
      "崴": 1250,
      "嶄": 1251,
      "嶼": 1252,
      "川": 1253,
      "州": 1254,
      "巢": 1255,
      "工": 1256,
      "左": 1257,
      "巧": 1258,
      "巨": 1259,
      "巩": 1260,
      "巫": 1261,
      "差": 1262,
      "己": 1263,
      "已": 1264,
      "巴": 1265,
      "巷": 1266,
      "巾": 1267,
      "币": 1268,
      "市": 1269,
      "布": 1270,
      "帅": 1271,
      "帆": 1272,
      "师": 1273,
      "希": 1274,
      "帐": 1275,
      "帕": 1276,
      "帖": 1277,
      "帘": 1278,
      "帛": 1279,
      "帜": 1280,
      "帝": 1281,
      "帥": 1282,
      "带": 1283,
      "師": 1284,
      "席": 1285,
      "帮": 1286,
      "帳": 1287,
      "帶": 1288,
      "常": 1289,
      "帽": 1290,
      "幅": 1291,
      "幌": 1292,
      "幕": 1293,
      "幚": 1294,
      "幟": 1295,
      "幢": 1296,
      "幣": 1297,
      "幫": 1298,
      "干": 1299,
      "平": 1300,
      "年": 1301,
      "并": 1302,
      "幸": 1303,
      "幹": 1304,
      "幻": 1305,
      "幼": 1306,
      "幽": 1307,
      "幾": 1308,
      "广": 1309,
      "庄": 1310,
      "庆": 1311,
      "庇": 1312,
      "床": 1313,
      "序": 1314,
      "库": 1315,
      "应": 1316,
      "底": 1317,
      "店": 1318,
      "庙": 1319,
      "庚": 1320,
      "府": 1321,
      "庞": 1322,
      "废": 1323,
      "度": 1324,
      "座": 1325,
      "庫": 1326,
      "庭": 1327,
      "康": 1328,
      "庸": 1329,
      "廁": 1330,
      "廂": 1331,
      "廈": 1332,
      "廉": 1333,
      "廊": 1334,
      "廚": 1335,
      "廟": 1336,
      "廠": 1337,
      "廢": 1338,
      "廣": 1339,
      "廳": 1340,
      "延": 1341,
      "廷": 1342,
      "建": 1343,
      "开": 1344,
      "异": 1345,
      "弃": 1346,
      "弄": 1347,
      "弈": 1348,
      "弊": 1349,
      "式": 1350,
      "弓": 1351,
      "引": 1352,
      "弗": 1353,
      "弘": 1354,
      "弟": 1355,
      "张": 1356,
      "弥": 1357,
      "弦": 1358,
      "弧": 1359,
      "弯": 1360,
      "弱": 1361,
      "張": 1362,
      "強": 1363,
      "弹": 1364,
      "强": 1365,
      "彈": 1366,
      "彌": 1367,
      "彎": 1368,
      "归": 1369,
      "当": 1370,
      "录": 1371,
      "彗": 1372,
      "彙": 1373,
      "形": 1374,
      "彩": 1375,
      "彬": 1376,
      "影": 1377,
      "彷": 1378,
      "役": 1379,
      "彻": 1380,
      "彼": 1381,
      "彿": 1382,
      "往": 1383,
      "征": 1384,
      "径": 1385,
      "待": 1386,
      "很": 1387,
      "律": 1388,
      "後": 1389,
      "徑": 1390,
      "徒": 1391,
      "得": 1392,
      "從": 1393,
      "御": 1394,
      "徨": 1395,
      "復": 1396,
      "循": 1397,
      "微": 1398,
      "徵": 1399,
      "德": 1400,
      "徹": 1401,
      "徽": 1402,
      "心": 1403,
      "必": 1404,
      "忆": 1405,
      "忌": 1406,
      "忍": 1407,
      "忐": 1408,
      "忑": 1409,
      "志": 1410,
      "忘": 1411,
      "忙": 1412,
      "忠": 1413,
      "忧": 1414,
      "快": 1415,
      "忱": 1416,
      "念": 1417,
      "忽": 1418,
      "怀": 1419,
      "态": 1420,
      "怎": 1421,
      "怏": 1422,
      "怒": 1423,
      "怕": 1424,
      "怖": 1425,
      "怜": 1426,
      "思": 1427,
      "怠": 1428,
      "急": 1429,
      "性": 1430,
      "怨": 1431,
      "怪": 1432,
      "怯": 1433,
      "总": 1434,
      "恆": 1435,
      "恋": 1436,
      "恐": 1437,
      "恒": 1438,
      "恕": 1439,
      "恢": 1440,
      "恤": 1441,
      "恥": 1442,
      "恨": 1443,
      "恩": 1444,
      "恭": 1445,
      "息": 1446,
      "恰": 1447,
      "恳": 1448,
      "恶": 1449,
      "恼": 1450,
      "恿": 1451,
      "悄": 1452,
      "悅": 1453,
      "悉": 1454,
      "悍": 1455,
      "悔": 1456,
      "悖": 1457,
      "悠": 1458,
      "患": 1459,
      "悦": 1460,
      "您": 1461,
      "悬": 1462,
      "悲": 1463,
      "悴": 1464,
      "悶": 1465,
      "悼": 1466,
      "情": 1467,
      "惊": 1468,
      "惑": 1469,
      "惕": 1470,
      "惜": 1471,
      "惠": 1472,
      "惡": 1473,
      "惧": 1474,
      "惨": 1475,
      "惩": 1476,
      "惫": 1477,
      "惭": 1478,
      "惯": 1479,
      "惰": 1480,
      "惱": 1481,
      "想": 1482,
      "惹": 1483,
      "愁": 1484,
      "愈": 1485,
      "愉": 1486,
      "意": 1487,
      "愚": 1488,
      "愛": 1489,
      "感": 1490,
      "愤": 1491,
      "愧": 1492,
      "愿": 1493,
      "慈": 1494,
      "態": 1495,
      "慌": 1496,
      "慎": 1497,
      "慕": 1498,
      "慘": 1499,
      "慢": 1500,
      "慣": 1501,
      "慧": 1502,
      "慨": 1503,
      "慫": 1504,
      "慮": 1505,
      "慰": 1506,
      "慶": 1507,
      "慷": 1508,
      "慾": 1509,
      "憂": 1510,
      "憊": 1511,
      "憐": 1512,
      "憑": 1513,
      "憔": 1514,
      "憤": 1515,
      "憩": 1516,
      "憲": 1517,
      "憶": 1518,
      "憾": 1519,
      "懂": 1520,
      "應": 1521,
      "懊": 1522,
      "懒": 1523,
      "懦": 1524,
      "懲": 1525,
      "懶": 1526,
      "懷": 1527,
      "懸": 1528,
      "懼": 1529,
      "戀": 1530,
      "戈": 1531,
      "戏": 1532,
      "成": 1533,
      "我": 1534,
      "戒": 1535,
      "或": 1536,
      "战": 1537,
      "戚": 1538,
      "截": 1539,
      "戰": 1540,
      "戲": 1541,
      "戳": 1542,
      "戴": 1543,
      "戶": 1544,
      "户": 1545,
      "房": 1546,
      "所": 1547,
      "扁": 1548,
      "扇": 1549,
      "扉": 1550,
      "手": 1551,
      "才": 1552,
      "扎": 1553,
      "扑": 1554,
      "扒": 1555,
      "打": 1556,
      "扔": 1557,
      "托": 1558,
      "扛": 1559,
      "扣": 1560,
      "执": 1561,
      "扩": 1562,
      "扫": 1563,
      "扬": 1564,
      "扭": 1565,
      "扮": 1566,
      "扯": 1567,
      "扰": 1568,
      "扶": 1569,
      "批": 1570,
      "扼": 1571,
      "找": 1572,
      "承": 1573,
      "技": 1574,
      "抄": 1575,
      "抉": 1576,
      "把": 1577,
      "抑": 1578,
      "抒": 1579,
      "抓": 1580,
      "投": 1581,
      "抖": 1582,
      "抗": 1583,
      "折": 1584,
      "抚": 1585,
      "抛": 1586,
      "抢": 1587,
      "护": 1588,
      "报": 1589,
      "抨": 1590,
      "披": 1591,
      "抬": 1592,
      "抱": 1593,
      "抵": 1594,
      "抹": 1595,
      "押": 1596,
      "抽": 1597,
      "拂": 1598,
      "拄": 1599,
      "担": 1600,
      "拆": 1601,
      "拇": 1602,
      "拉": 1603,
      "拋": 1604,
      "拌": 1605,
      "拍": 1606,
      "拐": 1607,
      "拒": 1608,
      "拓": 1609,
      "拔": 1610,
      "拖": 1611,
      "拘": 1612,
      "招": 1613,
      "拜": 1614,
      "拟": 1615,
      "拥": 1616,
      "拧": 1617,
      "拨": 1618,
      "择": 1619,
      "括": 1620,
      "拯": 1621,
      "拳": 1622,
      "拷": 1623,
      "拼": 1624,
      "拽": 1625,
      "拾": 1626,
      "拿": 1627,
      "持": 1628,
      "挂": 1629,
      "指": 1630,
      "按": 1631,
      "挑": 1632,
      "挖": 1633,
      "挚": 1634,
      "挝": 1635,
      "挡": 1636,
      "挣": 1637,
      "挤": 1638,
      "挥": 1639,
      "挨": 1640,
      "挪": 1641,
      "挫": 1642,
      "振": 1643,
      "挺": 1644,
      "挽": 1645,
      "挾": 1646,
      "捂": 1647,
      "捅": 1648,
      "捆": 1649,
      "捉": 1650,
      "捍": 1651,
      "捏": 1652,
      "捐": 1653,
      "捕": 1654,
      "捞": 1655,
      "损": 1656,
      "捡": 1657,
      "换": 1658,
      "捣": 1659,
      "捧": 1660,
      "据": 1661,
      "捱": 1662,
      "捲": 1663,
      "捷": 1664,
      "掀": 1665,
      "掃": 1666,
      "授": 1667,
      "掉": 1668,
      "掌": 1669,
      "掏": 1670,
      "掐": 1671,
      "排": 1672,
      "掖": 1673,
      "掘": 1674,
      "掙": 1675,
      "掛": 1676,
      "掠": 1677,
      "採": 1678,
      "探": 1679,
      "接": 1680,
      "控": 1681,
      "推": 1682,
      "掩": 1683,
      "措": 1684,
      "掰": 1685,
      "掷": 1686,
      "掺": 1687,
      "揄": 1688,
      "揉": 1689,
      "揍": 1690,
      "描": 1691,
      "提": 1692,
      "插": 1693,
      "揚": 1694,
      "換": 1695,
      "握": 1696,
      "揭": 1697,
      "揮": 1698,
      "援": 1699,
      "揶": 1700,
      "搁": 1701,
      "搅": 1702,
      "搆": 1703,
      "損": 1704,
      "搏": 1705,
      "搓": 1706,
      "搔": 1707,
      "搖": 1708,
      "搗": 1709,
      "搜": 1710,
      "搞": 1711,
      "搧": 1712,
      "搬": 1713,
      "搭": 1714,
      "搶": 1715,
      "携": 1716,
      "摄": 1717,
      "摆": 1718,
      "摇": 1719,
      "摑": 1720,
      "摔": 1721,
      "摘": 1722,
      "摧": 1723,
      "摩": 1724,
      "摯": 1725,
      "摸": 1726,
      "摺": 1727,
      "撇": 1728,
      "撐": 1729,
      "撑": 1730,
      "撒": 1731,
      "撕": 1732,
      "撞": 1733,
      "撤": 1734,
      "撥": 1735,
      "撫": 1736,
      "撬": 1737,
      "播": 1738,
      "撰": 1739,
      "撲": 1740,
      "撸": 1741,
      "撻": 1742,
      "撼": 1743,
      "撾": 1744,
      "撿": 1745,
      "擀": 1746,
      "擁": 1747,
      "擂": 1748,
      "擅": 1749,
      "擇": 1750,
      "擊": 1751,
      "擋": 1752,
      "操": 1753,
      "擎": 1754,
      "擔": 1755,
      "據": 1756,
      "擠": 1757,
      "擤": 1758,
      "擦": 1759,
      "擬": 1760,
      "擰": 1761,
      "擱": 1762,
      "擲": 1763,
      "擴": 1764,
      "擺": 1765,
      "擾": 1766,
      "攀": 1767,
      "攒": 1768,
      "攔": 1769,
      "攜": 1770,
      "攝": 1771,
      "攪": 1772,
      "支": 1773,
      "收": 1774,
      "改": 1775,
      "攻": 1776,
      "放": 1777,
      "政": 1778,
      "故": 1779,
      "效": 1780,
      "敌": 1781,
      "敍": 1782,
      "敏": 1783,
      "救": 1784,
      "敗": 1785,
      "教": 1786,
      "敞": 1787,
      "敢": 1788,
      "散": 1789,
      "敦": 1790,
      "敬": 1791,
      "数": 1792,
      "敲": 1793,
      "整": 1794,
      "敵": 1795,
      "敷": 1796,
      "數": 1797,
      "文": 1798,
      "斑": 1799,
      "斗": 1800,
      "料": 1801,
      "斜": 1802,
      "斟": 1803,
      "斤": 1804,
      "斥": 1805,
      "斧": 1806,
      "斬": 1807,
      "断": 1808,
      "斯": 1809,
      "新": 1810,
      "斷": 1811,
      "方": 1812,
      "於": 1813,
      "施": 1814,
      "旁": 1815,
      "旅": 1816,
      "旋": 1817,
      "族": 1818,
      "旗": 1819,
      "无": 1820,
      "既": 1821,
      "日": 1822,
      "旦": 1823,
      "旧": 1824,
      "旨": 1825,
      "早": 1826,
      "旬": 1827,
      "旱": 1828,
      "时": 1829,
      "旷": 1830,
      "旺": 1831,
      "昂": 1832,
      "昆": 1833,
      "明": 1834,
      "昏": 1835,
      "易": 1836,
      "昔": 1837,
      "星": 1838,
      "映": 1839,
      "春": 1840,
      "昧": 1841,
      "昨": 1842,
      "昭": 1843,
      "是": 1844,
      "昵": 1845,
      "昼": 1846,
      "显": 1847,
      "時": 1848,
      "晃": 1849,
      "晉": 1850,
      "晒": 1851,
      "晓": 1852,
      "晕": 1853,
      "晚": 1854,
      "晤": 1855,
      "晨": 1856,
      "普": 1857,
      "景": 1858,
      "晰": 1859,
      "晴": 1860,
      "晶": 1861,
      "智": 1862,
      "晾": 1863,
      "暂": 1864,
      "暄": 1865,
      "暇": 1866,
      "暈": 1867,
      "暑": 1868,
      "暖": 1869,
      "暗": 1870,
      "暢": 1871,
      "暧": 1872,
      "暫": 1873,
      "暱": 1874,
      "暴": 1875,
      "曆": 1876,
      "曉": 1877,
      "曝": 1878,
      "曬": 1879,
      "曲": 1880,
      "更": 1881,
      "書": 1882,
      "曹": 1883,
      "曼": 1884,
      "曾": 1885,
      "替": 1886,
      "最": 1887,
      "會": 1888,
      "月": 1889,
      "有": 1890,
      "朋": 1891,
      "服": 1892,
      "朕": 1893,
      "朗": 1894,
      "望": 1895,
      "朝": 1896,
      "期": 1897,
      "朦": 1898,
      "木": 1899,
      "未": 1900,
      "末": 1901,
      "本": 1902,
      "札": 1903,
      "术": 1904,
      "朱": 1905,
      "朴": 1906,
      "朵": 1907,
      "机": 1908,
      "朽": 1909,
      "杀": 1910,
      "杂": 1911,
      "权": 1912,
      "杆": 1913,
      "杉": 1914,
      "李": 1915,
      "材": 1916,
      "村": 1917,
      "杖": 1918,
      "杜": 1919,
      "束": 1920,
      "杠": 1921,
      "条": 1922,
      "来": 1923,
      "杨": 1924,
      "杭": 1925,
      "杯": 1926,
      "杰": 1927,
      "東": 1928,
      "松": 1929,
      "板": 1930,
      "极": 1931,
      "构": 1932,
      "析": 1933,
      "枕": 1934,
      "林": 1935,
      "枚": 1936,
      "果": 1937,
      "枝": 1938,
      "枪": 1939,
      "枫": 1940,
      "枯": 1941,
      "架": 1942,
      "柄": 1943,
      "柏": 1944,
      "某": 1945,
      "染": 1946,
      "柔": 1947,
      "柜": 1948,
      "柠": 1949,
      "查": 1950,
      "柯": 1951,
      "柱": 1952,
      "柳": 1953,
      "柴": 1954,
      "柵": 1955,
      "柿": 1956,
      "栅": 1957,
      "标": 1958,
      "栋": 1959,
      "栏": 1960,
      "树": 1961,
      "栖": 1962,
      "栗": 1963,
      "校": 1964,
      "样": 1965,
      "核": 1966,
      "根": 1967,
      "格": 1968,
      "栽": 1969,
      "桂": 1970,
      "桃": 1971,
      "框": 1972,
      "案": 1973,
      "桌": 1974,
      "桑": 1975,
      "档": 1976,
      "桥": 1977,
      "桦": 1978,
      "桩": 1979,
      "桶": 1980,
      "桿": 1981,
      "梁": 1982,
      "梅": 1983,
      "條": 1984,
      "梦": 1985,
      "梨": 1986,
      "梭": 1987,
      "梯": 1988,
      "械": 1989,
      "梳": 1990,
      "梵": 1991,
      "检": 1992,
      "棄": 1993,
      "棉": 1994,
      "棋": 1995,
      "棍": 1996,
      "棒": 1997,
      "棕": 1998,
      "棘": 1999,
      "棚": 2000,
      "棟": 2001,
      "森": 2002,
      "棱": 2003,
      "棲": 2004,
      "棵": 2005,
      "椅": 2006,
      "植": 2007,
      "椒": 2008,
      "椰": 2009,
      "楚": 2010,
      "楠": 2011,
      "楣": 2012,
      "業": 2013,
      "極": 2014,
      "楼": 2015,
      "概": 2016,
      "榄": 2017,
      "榈": 2018,
      "榔": 2019,
      "榜": 2020,
      "榨": 2021,
      "榮": 2022,
      "構": 2023,
      "槍": 2024,
      "槟": 2025,
      "槳": 2026,
      "槽": 2027,
      "樂": 2028,
      "樓": 2029,
      "標": 2030,
      "模": 2031,
      "樣": 2032,
      "横": 2033,
      "樱": 2034,
      "樵": 2035,
      "樹": 2036,
      "橄": 2037,
      "橇": 2038,
      "橋": 2039,
      "橘": 2040,
      "橙": 2041,
      "機": 2042,
      "橡": 2043,
      "橢": 2044,
      "橫": 2045,
      "橱": 2046,
      "檐": 2047,
      "檔": 2048,
      "檢": 2049,
      "檬": 2050,
      "檯": 2051,
      "檸": 2052,
      "櫃": 2053,
      "櫥": 2054,
      "櫻": 2055,
      "欄": 2056,
      "權": 2057,
      "欖": 2058,
      "欠": 2059,
      "次": 2060,
      "欢": 2061,
      "欣": 2062,
      "欧": 2063,
      "欲": 2064,
      "欺": 2065,
      "款": 2066,
      "歇": 2067,
      "歉": 2068,
      "歌": 2069,
      "歐": 2070,
      "歡": 2071,
      "止": 2072,
      "正": 2073,
      "此": 2074,
      "步": 2075,
      "武": 2076,
      "歧": 2077,
      "歪": 2078,
      "歲": 2079,
      "歷": 2080,
      "歸": 2081,
      "死": 2082,
      "殃": 2083,
      "殆": 2084,
      "殊": 2085,
      "残": 2086,
      "殖": 2087,
      "殘": 2088,
      "殭": 2089,
      "殴": 2090,
      "段": 2091,
      "殺": 2092,
      "殼": 2093,
      "殿": 2094,
      "毀": 2095,
      "毁": 2096,
      "毅": 2097,
      "毋": 2098,
      "母": 2099,
      "每": 2100,
      "毒": 2101,
      "比": 2102,
      "毕": 2103,
      "毗": 2104,
      "毙": 2105,
      "毛": 2106,
      "毫": 2107,
      "毯": 2108,
      "氈": 2109,
      "氏": 2110,
      "民": 2111,
      "氓": 2112,
      "气": 2113,
      "氛": 2114,
      "氟": 2115,
      "氢": 2116,
      "氣": 2117,
      "氧": 2118,
      "氨": 2119,
      "氫": 2120,
      "氮": 2121,
      "水": 2122,
      "永": 2123,
      "氾": 2124,
      "汁": 2125,
      "求": 2126,
      "汇": 2127,
      "汉": 2128,
      "汗": 2129,
      "汙": 2130,
      "汝": 2131,
      "汞": 2132,
      "江": 2133,
      "池": 2134,
      "污": 2135,
      "汤": 2136,
      "汩": 2137,
      "汪": 2138,
      "汰": 2139,
      "決": 2140,
      "汽": 2141,
      "沃": 2142,
      "沈": 2143,
      "沉": 2144,
      "沌": 2145,
      "沏": 2146,
      "沐": 2147,
      "沒": 2148,
      "沖": 2149,
      "沙": 2150,
      "沛": 2151,
      "沟": 2152,
      "没": 2153,
      "沮": 2154,
      "河": 2155,
      "沸": 2156,
      "油": 2157,
      "治": 2158,
      "沼": 2159,
      "沾": 2160,
      "沿": 2161,
      "況": 2162,
      "泄": 2163,
      "泉": 2164,
      "泊": 2165,
      "泔": 2166,
      "法": 2167,
      "泛": 2168,
      "泡": 2169,
      "波": 2170,
      "泣": 2171,
      "泥": 2172,
      "注": 2173,
      "泪": 2174,
      "泰": 2175,
      "泳": 2176,
      "泻": 2177,
      "泼": 2178,
      "泽": 2179,
      "泾": 2180,
      "洁": 2181,
      "洋": 2182,
      "洒": 2183,
      "洗": 2184,
      "洛": 2185,
      "洞": 2186,
      "津": 2187,
      "洩": 2188,
      "洪": 2189,
      "洲": 2190,
      "活": 2191,
      "洽": 2192,
      "派": 2193,
      "流": 2194,
      "浅": 2195,
      "浆": 2196,
      "浇": 2197,
      "测": 2198,
      "济": 2199,
      "浏": 2200,
      "浑": 2201,
      "浓": 2202,
      "浜": 2203,
      "浦": 2204,
      "浩": 2205,
      "浪": 2206,
      "浮": 2207,
      "浴": 2208,
      "海": 2209,
      "浸": 2210,
      "涂": 2211,
      "消": 2212,
      "涉": 2213,
      "涌": 2214,
      "涕": 2215,
      "涛": 2216,
      "涤": 2217,
      "润": 2218,
      "涨": 2219,
      "涯": 2220,
      "液": 2221,
      "涵": 2222,
      "涸": 2223,
      "涼": 2224,
      "淆": 2225,
      "淇": 2226,
      "淋": 2227,
      "淒": 2228,
      "淘": 2229,
      "淚": 2230,
      "淡": 2231,
      "淨": 2232,
      "淫": 2233,
      "深": 2234,
      "混": 2235,
      "淹": 2236,
      "淺": 2237,
      "添": 2238,
      "清": 2239,
      "渎": 2240,
      "渐": 2241,
      "渔": 2242,
      "渚": 2243,
      "減": 2244,
      "渡": 2245,
      "温": 2246,
      "測": 2247,
      "港": 2248,
      "渴": 2249,
      "游": 2250,
      "渺": 2251,
      "渾": 2252,
      "湊": 2253,
      "湍": 2254,
      "湖": 2255,
      "湘": 2256,
      "湧": 2257,
      "湯": 2258,
      "湾": 2259,
      "湿": 2260,
      "溃": 2261,
      "溅": 2262,
      "溏": 2263,
      "源": 2264,
      "準": 2265,
      "溜": 2266,
      "溝": 2267,
      "溢": 2268,
      "溪": 2269,
      "溫": 2270,
      "溯": 2271,
      "溶": 2272,
      "溺": 2273,
      "滅": 2274,
      "滋": 2275,
      "滑": 2276,
      "滕": 2277,
      "滚": 2278,
      "滞": 2279,
      "满": 2280,
      "滥": 2281,
      "滨": 2282,
      "滩": 2283,
      "滲": 2284,
      "滴": 2285,
      "滾": 2286,
      "滿": 2287,
      "漁": 2288,
      "漂": 2289,
      "漆": 2290,
      "漏": 2291,
      "演": 2292,
      "漠": 2293,
      "漢": 2294,
      "漣": 2295,
      "漪": 2296,
      "漫": 2297,
      "漱": 2298,
      "漲": 2299,
      "漸": 2300,
      "漿": 2301,
      "潑": 2302,
      "潔": 2303,
      "潛": 2304,
      "潜": 2305,
      "潢": 2306,
      "潤": 2307,
      "潦": 2308,
      "潮": 2309,
      "潰": 2310,
      "潺": 2311,
      "澀": 2312,
      "澄": 2313,
      "澆": 2314,
      "澈": 2315,
      "澡": 2316,
      "澤": 2317,
      "澳": 2318,
      "激": 2319,
      "濃": 2320,
      "濒": 2321,
      "濕": 2322,
      "濟": 2323,
      "濫": 2324,
      "濱": 2325,
      "濺": 2326,
      "濾": 2327,
      "瀏": 2328,
      "瀑": 2329,
      "瀕": 2330,
      "瀚": 2331,
      "灌": 2332,
      "灑": 2333,
      "灘": 2334,
      "灣": 2335,
      "火": 2336,
      "灭": 2337,
      "灯": 2338,
      "灰": 2339,
      "灵": 2340,
      "灶": 2341,
      "灸": 2342,
      "灼": 2343,
      "災": 2344,
      "灾": 2345,
      "炉": 2346,
      "炎": 2347,
      "炒": 2348,
      "炖": 2349,
      "炫": 2350,
      "炭": 2351,
      "炮": 2352,
      "炸": 2353,
      "点": 2354,
      "為": 2355,
      "炼": 2356,
      "烁": 2357,
      "烂": 2358,
      "烈": 2359,
      "烊": 2360,
      "烏": 2361,
      "烘": 2362,
      "烛": 2363,
      "烟": 2364,
      "烤": 2365,
      "烦": 2366,
      "烧": 2367,
      "烩": 2368,
      "烫": 2369,
      "烬": 2370,
      "热": 2371,
      "烹": 2372,
      "焉": 2373,
      "焕": 2374,
      "焚": 2375,
      "無": 2376,
      "焦": 2377,
      "焰": 2378,
      "然": 2379,
      "煉": 2380,
      "煌": 2381,
      "煎": 2382,
      "煙": 2383,
      "煤": 2384,
      "照": 2385,
      "煩": 2386,
      "煮": 2387,
      "煽": 2388,
      "熄": 2389,
      "熊": 2390,
      "熏": 2391,
      "熟": 2392,
      "熨": 2393,
      "熬": 2394,
      "熱": 2395,
      "燃": 2396,
      "燈": 2397,
      "燒": 2398,
      "燔": 2399,
      "燕": 2400,
      "燙": 2401,
      "營": 2402,
      "燥": 2403,
      "燦": 2404,
      "燭": 2405,
      "燼": 2406,
      "爆": 2407,
      "爍": 2408,
      "爐": 2409,
      "爛": 2410,
      "爪": 2411,
      "爬": 2412,
      "爭": 2413,
      "爱": 2414,
      "爲": 2415,
      "爵": 2416,
      "父": 2417,
      "爷": 2418,
      "爸": 2419,
      "爹": 2420,
      "爺": 2421,
      "爽": 2422,
      "爾": 2423,
      "牆": 2424,
      "片": 2425,
      "版": 2426,
      "牌": 2427,
      "牙": 2428,
      "牛": 2429,
      "牠": 2430,
      "牡": 2431,
      "牢": 2432,
      "牧": 2433,
      "物": 2434,
      "牲": 2435,
      "牵": 2436,
      "特": 2437,
      "牺": 2438,
      "牽": 2439,
      "犀": 2440,
      "犠": 2441,
      "犧": 2442,
      "犬": 2443,
      "犯": 2444,
      "状": 2445,
      "犹": 2446,
      "狀": 2447,
      "狂": 2448,
      "狄": 2449,
      "狐": 2450,
      "狗": 2451,
      "狞": 2452,
      "狠": 2453,
      "狡": 2454,
      "狩": 2455,
      "独": 2456,
      "狭": 2457,
      "狮": 2458,
      "狱": 2459,
      "狸": 2460,
      "狹": 2461,
      "狼": 2462,
      "猎": 2463,
      "猙": 2464,
      "猛": 2465,
      "猜": 2466,
      "猩": 2467,
      "猪": 2468,
      "猫": 2469,
      "猬": 2470,
      "献": 2471,
      "猴": 2472,
      "猶": 2473,
      "猾": 2474,
      "獄": 2475,
      "獅": 2476,
      "獎": 2477,
      "獨": 2478,
      "獰": 2479,
      "獲": 2480,
      "獵": 2481,
      "獸": 2482,
      "獻": 2483,
      "獼": 2484,
      "獾": 2485,
      "率": 2486,
      "玉": 2487,
      "王": 2488,
      "玛": 2489,
      "玩": 2490,
      "玫": 2491,
      "环": 2492,
      "现": 2493,
      "玲": 2494,
      "玻": 2495,
      "珊": 2496,
      "珍": 2497,
      "珠": 2498,
      "班": 2499,
      "現": 2500,
      "球": 2501,
      "理": 2502,
      "琉": 2503,
      "琐": 2504,
      "琳": 2505,
      "琴": 2506,
      "琼": 2507,
      "瑕": 2508,
      "瑚": 2509,
      "瑜": 2510,
      "瑞": 2511,
      "瑟": 2512,
      "瑣": 2513,
      "瑪": 2514,
      "瑰": 2515,
      "璃": 2516,
      "璋": 2517,
      "環": 2518,
      "瓊": 2519,
      "瓜": 2520,
      "瓣": 2521,
      "瓦": 2522,
      "瓮": 2523,
      "瓶": 2524,
      "瓷": 2525,
      "甘": 2526,
      "甚": 2527,
      "甜": 2528,
      "生": 2529,
      "產": 2530,
      "産": 2531,
      "甥": 2532,
      "用": 2533,
      "甩": 2534,
      "田": 2535,
      "由": 2536,
      "甲": 2537,
      "申": 2538,
      "电": 2539,
      "男": 2540,
      "甸": 2541,
      "町": 2542,
      "画": 2543,
      "畅": 2544,
      "界": 2545,
      "畏": 2546,
      "畔": 2547,
      "留": 2548,
      "畜": 2549,
      "畝": 2550,
      "畢": 2551,
      "略": 2552,
      "番": 2553,
      "畫": 2554,
      "異": 2555,
      "當": 2556,
      "畸": 2557,
      "疆": 2558,
      "疊": 2559,
      "疏": 2560,
      "疑": 2561,
      "疗": 2562,
      "疙": 2563,
      "疚": 2564,
      "疤": 2565,
      "疫": 2566,
      "疯": 2567,
      "疲": 2568,
      "疵": 2569,
      "疼": 2570,
      "疾": 2571,
      "病": 2572,
      "症": 2573,
      "痊": 2574,
      "痒": 2575,
      "痕": 2576,
      "痘": 2577,
      "痛": 2578,
      "痠": 2579,
      "痢": 2580,
      "痨": 2581,
      "痰": 2582,
      "痴": 2583,
      "瘋": 2584,
      "瘓": 2585,
      "瘟": 2586,
      "瘤": 2587,
      "瘦": 2588,
      "瘧": 2589,
      "瘩": 2590,
      "瘪": 2591,
      "瘾": 2592,
      "療": 2593,
      "癌": 2594,
      "癒": 2595,
      "癡": 2596,
      "癢": 2597,
      "癥": 2598,
      "癮": 2599,
      "癱": 2600,
      "登": 2601,
      "發": 2602,
      "白": 2603,
      "百": 2604,
      "皂": 2605,
      "的": 2606,
      "皆": 2607,
      "皇": 2608,
      "皈": 2609,
      "皙": 2610,
      "皮": 2611,
      "皺": 2612,
      "盃": 2613,
      "盆": 2614,
      "盈": 2615,
      "益": 2616,
      "盎": 2617,
      "盏": 2618,
      "盐": 2619,
      "监": 2620,
      "盒": 2621,
      "盔": 2622,
      "盖": 2623,
      "盗": 2624,
      "盘": 2625,
      "盛": 2626,
      "盜": 2627,
      "盞": 2628,
      "盟": 2629,
      "盡": 2630,
      "監": 2631,
      "盤": 2632,
      "盧": 2633,
      "目": 2634,
      "盯": 2635,
      "盲": 2636,
      "直": 2637,
      "相": 2638,
      "盹": 2639,
      "盼": 2640,
      "盾": 2641,
      "省": 2642,
      "眉": 2643,
      "看": 2644,
      "真": 2645,
      "眠": 2646,
      "眨": 2647,
      "眯": 2648,
      "眶": 2649,
      "眼": 2650,
      "眾": 2651,
      "着": 2652,
      "睁": 2653,
      "睏": 2654,
      "睛": 2655,
      "睜": 2656,
      "睡": 2657,
      "督": 2658,
      "睦": 2659,
      "睫": 2660,
      "睬": 2661,
      "睹": 2662,
      "瞄": 2663,
      "瞌": 2664,
      "瞎": 2665,
      "瞑": 2666,
      "瞒": 2667,
      "瞞": 2668,
      "瞟": 2669,
      "瞥": 2670,
      "瞧": 2671,
      "瞩": 2672,
      "瞪": 2673,
      "瞬": 2674,
      "瞭": 2675,
      "瞰": 2676,
      "瞳": 2677,
      "瞻": 2678,
      "矗": 2679,
      "矛": 2680,
      "矜": 2681,
      "矣": 2682,
      "知": 2683,
      "矩": 2684,
      "短": 2685,
      "矮": 2686,
      "石": 2687,
      "矶": 2688,
      "矿": 2689,
      "码": 2690,
      "砂": 2691,
      "砍": 2692,
      "砒": 2693,
      "研": 2694,
      "砰": 2695,
      "破": 2696,
      "砸": 2697,
      "础": 2698,
      "硕": 2699,
      "硫": 2700,
      "硬": 2701,
      "确": 2702,
      "碌": 2703,
      "碍": 2704,
      "碎": 2705,
      "碑": 2706,
      "碗": 2707,
      "碟": 2708,
      "碧": 2709,
      "碰": 2710,
      "碳": 2711,
      "確": 2712,
      "碼": 2713,
      "碾": 2714,
      "磁": 2715,
      "磅": 2716,
      "磕": 2717,
      "磚": 2718,
      "磨": 2719,
      "磯": 2720,
      "磺": 2721,
      "礁": 2722,
      "礎": 2723,
      "礙": 2724,
      "礦": 2725,
      "示": 2726,
      "礼": 2727,
      "社": 2728,
      "祂": 2729,
      "祈": 2730,
      "祕": 2731,
      "祖": 2732,
      "祝": 2733,
      "神": 2734,
      "祥": 2735,
      "票": 2736,
      "祭": 2737,
      "祯": 2738,
      "祷": 2739,
      "祸": 2740,
      "禁": 2741,
      "禄": 2742,
      "禍": 2743,
      "福": 2744,
      "禦": 2745,
      "禮": 2746,
      "禱": 2747,
      "离": 2748,
      "禽": 2749,
      "禿": 2750,
      "秀": 2751,
      "私": 2752,
      "秃": 2753,
      "秋": 2754,
      "种": 2755,
      "科": 2756,
      "秒": 2757,
      "秘": 2758,
      "租": 2759,
      "秤": 2760,
      "秩": 2761,
      "积": 2762,
      "称": 2763,
      "移": 2764,
      "秽": 2765,
      "稀": 2766,
      "稅": 2767,
      "程": 2768,
      "稍": 2769,
      "税": 2770,
      "稔": 2771,
      "稚": 2772,
      "稠": 2773,
      "稣": 2774,
      "種": 2775,
      "稱": 2776,
      "稳": 2777,
      "稻": 2778,
      "稽": 2779,
      "稿": 2780,
      "穀": 2781,
      "穆": 2782,
      "穌": 2783,
      "積": 2784,
      "穗": 2785,
      "穩": 2786,
      "穫": 2787,
      "穴": 2788,
      "究": 2789,
      "穷": 2790,
      "空": 2791,
      "穿": 2792,
      "突": 2793,
      "窃": 2794,
      "窄": 2795,
      "窍": 2796,
      "窗": 2797,
      "窜": 2798,
      "窝": 2799,
      "窟": 2800,
      "窥": 2801,
      "窩": 2802,
      "窮": 2803,
      "竅": 2804,
      "竊": 2805,
      "立": 2806,
      "站": 2807,
      "竝": 2808,
      "竞": 2809,
      "竟": 2810,
      "章": 2811,
      "童": 2812,
      "竭": 2813,
      "端": 2814,
      "競": 2815,
      "竹": 2816,
      "竺": 2817,
      "竿": 2818,
      "笆": 2819,
      "笑": 2820,
      "笔": 2821,
      "笙": 2822,
      "笛": 2823,
      "笠": 2824,
      "符": 2825,
      "笨": 2826,
      "第": 2827,
      "笼": 2828,
      "筆": 2829,
      "等": 2830,
      "筋": 2831,
      "筍": 2832,
      "筑": 2833,
      "筒": 2834,
      "答": 2835,
      "策": 2836,
      "筝": 2837,
      "筱": 2838,
      "筵": 2839,
      "筷": 2840,
      "筹": 2841,
      "签": 2842,
      "简": 2843,
      "箇": 2844,
      "箏": 2845,
      "算": 2846,
      "管": 2847,
      "箫": 2848,
      "箭": 2849,
      "箱": 2850,
      "節": 2851,
      "範": 2852,
      "篇": 2853,
      "築": 2854,
      "篠": 2855,
      "篡": 2856,
      "篤": 2857,
      "篮": 2858,
      "篱": 2859,
      "篷": 2860,
      "簡": 2861,
      "簧": 2862,
      "簽": 2863,
      "簾": 2864,
      "簿": 2865,
      "籃": 2866,
      "籌": 2867,
      "籍": 2868,
      "籐": 2869,
      "籠": 2870,
      "籤": 2871,
      "籬": 2872,
      "籲": 2873,
      "米": 2874,
      "类": 2875,
      "籽": 2876,
      "粉": 2877,
      "粒": 2878,
      "粗": 2879,
      "粘": 2880,
      "粤": 2881,
      "粥": 2882,
      "粧": 2883,
      "粪": 2884,
      "粮": 2885,
      "粹": 2886,
      "粽": 2887,
      "精": 2888,
      "糊": 2889,
      "糕": 2890,
      "糖": 2891,
      "糗": 2892,
      "糙": 2893,
      "糟": 2894,
      "糧": 2895,
      "糬": 2896,
      "系": 2897,
      "糾": 2898,
      "紀": 2899,
      "約": 2900,
      "紅": 2901,
      "紉": 2902,
      "紋": 2903,
      "納": 2904,
      "紐": 2905,
      "紓": 2906,
      "純": 2907,
      "紙": 2908,
      "級": 2909,
      "紛": 2910,
      "素": 2911,
      "紡": 2912,
      "索": 2913,
      "紧": 2914,
      "紫": 2915,
      "紮": 2916,
      "累": 2917,
      "細": 2918,
      "紳": 2919,
      "紹": 2920,
      "終": 2921,
      "組": 2922,
      "絆": 2923,
      "結": 2924,
      "絕": 2925,
      "絡": 2926,
      "給": 2927,
      "絨": 2928,
      "統": 2929,
      "絲": 2930,
      "絶": 2931,
      "綁": 2932,
      "經": 2933,
      "綠": 2934,
      "綢": 2935,
      "維": 2936,
      "網": 2937,
      "綻": 2938,
      "綽": 2939,
      "綾": 2940,
      "綿": 2941,
      "緊": 2942,
      "緒": 2943,
      "線": 2944,
      "緣": 2945,
      "編": 2946,
      "緩": 2947,
      "緬": 2948,
      "練": 2949,
      "縛": 2950,
      "縣": 2951,
      "縫": 2952,
      "縮": 2953,
      "縱": 2954,
      "總": 2955,
      "績": 2956,
      "繁": 2957,
      "繃": 2958,
      "繆": 2959,
      "織": 2960,
      "繞": 2961,
      "繡": 2962,
      "繩": 2963,
      "繪": 2964,
      "繫": 2965,
      "繳": 2966,
      "繼": 2967,
      "續": 2968,
      "纏": 2969,
      "纔": 2970,
      "纖": 2971,
      "纠": 2972,
      "红": 2973,
      "约": 2974,
      "级": 2975,
      "纪": 2976,
      "纫": 2977,
      "纯": 2978,
      "纱": 2979,
      "纳": 2980,
      "纵": 2981,
      "纷": 2982,
      "纸": 2983,
      "纹": 2984,
      "纽": 2985,
      "线": 2986,
      "练": 2987,
      "组": 2988,
      "绅": 2989,
      "细": 2990,
      "织": 2991,
      "终": 2992,
      "绊": 2993,
      "绍": 2994,
      "经": 2995,
      "绑": 2996,
      "绒": 2997,
      "结": 2998,
      "绕": 2999,
      "绘": 3000,
      "给": 3001,
      "络": 3002,
      "绝": 3003,
      "绞": 3004,
      "统": 3005,
      "继": 3006,
      "绩": 3007,
      "绪": 3008,
      "续": 3009,
      "绰": 3010,
      "绳": 3011,
      "维": 3012,
      "绵": 3013,
      "绷": 3014,
      "绸": 3015,
      "综": 3016,
      "绿": 3017,
      "缀": 3018,
      "缅": 3019,
      "缆": 3020,
      "缇": 3021,
      "缉": 3022,
      "缓": 3023,
      "编": 3024,
      "缘": 3025,
      "缝": 3026,
      "缠": 3027,
      "缩": 3028,
      "缪": 3029,
      "缴": 3030,
      "缸": 3031,
      "缺": 3032,
      "罄": 3033,
      "罐": 3034,
      "网": 3035,
      "罔": 3036,
      "罕": 3037,
      "罗": 3038,
      "罚": 3039,
      "罢": 3040,
      "罩": 3041,
      "罪": 3042,
      "置": 3043,
      "罰": 3044,
      "署": 3045,
      "罵": 3046,
      "罷": 3047,
      "羅": 3048,
      "羊": 3049,
      "美": 3050,
      "羔": 3051,
      "羞": 3052,
      "羡": 3053,
      "群": 3054,
      "羨": 3055,
      "義": 3056,
      "羽": 3057,
      "翁": 3058,
      "翅": 3059,
      "習": 3060,
      "翔": 3061,
      "翘": 3062,
      "翰": 3063,
      "翹": 3064,
      "翻": 3065,
      "翼": 3066,
      "耀": 3067,
      "老": 3068,
      "考": 3069,
      "者": 3070,
      "而": 3071,
      "耍": 3072,
      "耐": 3073,
      "耕": 3074,
      "耗": 3075,
      "耘": 3076,
      "耳": 3077,
      "耶": 3078,
      "耻": 3079,
      "耽": 3080,
      "聆": 3081,
      "聊": 3082,
      "聋": 3083,
      "职": 3084,
      "联": 3085,
      "聖": 3086,
      "聘": 3087,
      "聚": 3088,
      "聞": 3089,
      "聪": 3090,
      "聯": 3091,
      "聰": 3092,
      "聲": 3093,
      "職": 3094,
      "聽": 3095,
      "聾": 3096,
      "肃": 3097,
      "肅": 3098,
      "肆": 3099,
      "肇": 3100,
      "肉": 3101,
      "肌": 3102,
      "肏": 3103,
      "肖": 3104,
      "肘": 3105,
      "肚": 3106,
      "肛": 3107,
      "肝": 3108,
      "肠": 3109,
      "股": 3110,
      "肤": 3111,
      "肥": 3112,
      "肩": 3113,
      "肪": 3114,
      "肮": 3115,
      "肯": 3116,
      "育": 3117,
      "肴": 3118,
      "肺": 3119,
      "肿": 3120,
      "胀": 3121,
      "胁": 3122,
      "胃": 3123,
      "胆": 3124,
      "背": 3125,
      "胎": 3126,
      "胖": 3127,
      "胚": 3128,
      "胜": 3129,
      "胞": 3130,
      "胡": 3131,
      "胰": 3132,
      "胳": 3133,
      "胶": 3134,
      "胸": 3135,
      "能": 3136,
      "脂": 3137,
      "脅": 3138,
      "脆": 3139,
      "脈": 3140,
      "脉": 3141,
      "脏": 3142,
      "脐": 3143,
      "脑": 3144,
      "脓": 3145,
      "脖": 3146,
      "脚": 3147,
      "脫": 3148,
      "脱": 3149,
      "脸": 3150,
      "脹": 3151,
      "脾": 3152,
      "腆": 3153,
      "腊": 3154,
      "腋": 3155,
      "腌": 3156,
      "腐": 3157,
      "腑": 3158,
      "腔": 3159,
      "腕": 3160,
      "腥": 3161,
      "腦": 3162,
      "腫": 3163,
      "腮": 3164,
      "腰": 3165,
      "腳": 3166,
      "腸": 3167,
      "腹": 3168,
      "腺": 3169,
      "腻": 3170,
      "腾": 3171,
      "腿": 3172,
      "膀": 3173,
      "膊": 3174,
      "膏": 3175,
      "膚": 3176,
      "膜": 3177,
      "膝": 3178,
      "膠": 3179,
      "膨": 3180,
      "膩": 3181,
      "膳": 3182,
      "膺": 3183,
      "膽": 3184,
      "膿": 3185,
      "臂": 3186,
      "臉": 3187,
      "臊": 3188,
      "臍": 3189,
      "臘": 3190,
      "臟": 3191,
      "臣": 3192,
      "臥": 3193,
      "臨": 3194,
      "自": 3195,
      "臭": 3196,
      "至": 3197,
      "致": 3198,
      "臺": 3199,
      "舅": 3200,
      "與": 3201,
      "興": 3202,
      "舉": 3203,
      "舊": 3204,
      "舌": 3205,
      "舍": 3206,
      "舒": 3207,
      "舔": 3208,
      "舖": 3209,
      "舛": 3210,
      "舞": 3211,
      "航": 3212,
      "般": 3213,
      "舰": 3214,
      "舱": 3215,
      "船": 3216,
      "艇": 3217,
      "艘": 3218,
      "良": 3219,
      "艰": 3220,
      "艱": 3221,
      "色": 3222,
      "艳": 3223,
      "艷": 3224,
      "艺": 3225,
      "艾": 3226,
      "节": 3227,
      "芋": 3228,
      "芒": 3229,
      "芙": 3230,
      "芝": 3231,
      "芥": 3232,
      "芦": 3233,
      "芬": 3234,
      "芭": 3235,
      "芯": 3236,
      "花": 3237,
      "芳": 3238,
      "芹": 3239,
      "芽": 3240,
      "苍": 3241,
      "苏": 3242,
      "苔": 3243,
      "苗": 3244,
      "苛": 3245,
      "苣": 3246,
      "若": 3247,
      "苦": 3248,
      "英": 3249,
      "苹": 3250,
      "茂": 3251,
      "范": 3252,
      "茄": 3253,
      "茅": 3254,
      "茉": 3255,
      "茎": 3256,
      "茕": 3257,
      "茨": 3258,
      "茫": 3259,
      "茬": 3260,
      "茱": 3261,
      "茲": 3262,
      "茵": 3263,
      "茶": 3264,
      "茹": 3265,
      "草": 3266,
      "荐": 3267,
      "荒": 3268,
      "荚": 3269,
      "荡": 3270,
      "荣": 3271,
      "荧": 3272,
      "药": 3273,
      "荷": 3274,
      "荼": 3275,
      "莉": 3276,
      "莊": 3277,
      "莎": 3278,
      "莓": 3279,
      "莞": 3280,
      "莫": 3281,
      "莱": 3282,
      "莲": 3283,
      "莴": 3284,
      "获": 3285,
      "莽": 3286,
      "菇": 3287,
      "菊": 3288,
      "菌": 3289,
      "菜": 3290,
      "菠": 3291,
      "華": 3292,
      "菱": 3293,
      "菲": 3294,
      "菸": 3295,
      "萃": 3296,
      "萄": 3297,
      "萊": 3298,
      "萌": 3299,
      "萎": 3300,
      "萝": 3301,
      "营": 3302,
      "萧": 3303,
      "萨": 3304,
      "萬": 3305,
      "落": 3306,
      "葉": 3307,
      "著": 3308,
      "葛": 3309,
      "葡": 3310,
      "董": 3311,
      "葫": 3312,
      "葬": 3313,
      "葱": 3314,
      "葵": 3315,
      "蒂": 3316,
      "蒐": 3317,
      "蒙": 3318,
      "蒜": 3319,
      "蒲": 3320,
      "蒸": 3321,
      "蒼": 3322,
      "蓄": 3323,
      "蓉": 3324,
      "蓋": 3325,
      "蓝": 3326,
      "蓬": 3327,
      "蓮": 3328,
      "蔑": 3329,
      "蔓": 3330,
      "蔔": 3331,
      "蔗": 3332,
      "蔚": 3333,
      "蔥": 3334,
      "蔬": 3335,
      "蔭": 3336,
      "蔼": 3337,
      "蔽": 3338,
      "蕃": 3339,
      "蕉": 3340,
      "蕩": 3341,
      "蕭": 3342,
      "蕾": 3343,
      "薄": 3344,
      "薑": 3345,
      "薛": 3346,
      "薦": 3347,
      "薩": 3348,
      "薪": 3349,
      "薯": 3350,
      "藉": 3351,
      "藍": 3352,
      "藏": 3353,
      "藓": 3354,
      "藝": 3355,
      "藤": 3356,
      "藥": 3357,
      "藩": 3358,
      "藹": 3359,
      "蘆": 3360,
      "蘇": 3361,
      "蘋": 3362,
      "蘑": 3363,
      "蘭": 3364,
      "蘸": 3365,
      "蘿": 3366,
      "虎": 3367,
      "虐": 3368,
      "虑": 3369,
      "虔": 3370,
      "處": 3371,
      "虚": 3372,
      "虛": 3373,
      "號": 3374,
      "虧": 3375,
      "虫": 3376,
      "虱": 3377,
      "虹": 3378,
      "虽": 3379,
      "虾": 3380,
      "蚀": 3381,
      "蚁": 3382,
      "蚂": 3383,
      "蚊": 3384,
      "蚓": 3385,
      "蚤": 3386,
      "蚯": 3387,
      "蚱": 3388,
      "蛀": 3389,
      "蛇": 3390,
      "蛋": 3391,
      "蛎": 3392,
      "蛙": 3393,
      "蛛": 3394,
      "蛮": 3395,
      "蛰": 3396,
      "蛹": 3397,
      "蛾": 3398,
      "蜂": 3399,
      "蜇": 3400,
      "蜍": 3401,
      "蜒": 3402,
      "蜓": 3403,
      "蜗": 3404,
      "蜘": 3405,
      "蜚": 3406,
      "蜜": 3407,
      "蜡": 3408,
      "蜢": 3409,
      "蜣": 3410,
      "蜥": 3411,
      "蜴": 3412,
      "蜻": 3413,
      "蜿": 3414,
      "蝇": 3415,
      "蝎": 3416,
      "蝕": 3417,
      "蝗": 3418,
      "蝙": 3419,
      "蝠": 3420,
      "蝦": 3421,
      "蝨": 3422,
      "蝴": 3423,
      "蝶": 3424,
      "蝸": 3425,
      "螂": 3426,
      "螃": 3427,
      "融": 3428,
      "螞": 3429,
      "螢": 3430,
      "蟀": 3431,
      "蟋": 3432,
      "蟑": 3433,
      "蟲": 3434,
      "蟹": 3435,
      "蟻": 3436,
      "蟾": 3437,
      "蠅": 3438,
      "蠟": 3439,
      "蠢": 3440,
      "蠣": 3441,
      "蠻": 3442,
      "血": 3443,
      "衅": 3444,
      "行": 3445,
      "衍": 3446,
      "術": 3447,
      "衕": 3448,
      "街": 3449,
      "衚": 3450,
      "衛": 3451,
      "衝": 3452,
      "衞": 3453,
      "衡": 3454,
      "衣": 3455,
      "补": 3456,
      "表": 3457,
      "衫": 3458,
      "衬": 3459,
      "衰": 3460,
      "衷": 3461,
      "袋": 3462,
      "袍": 3463,
      "袖": 3464,
      "袜": 3465,
      "被": 3466,
      "袭": 3467,
      "裁": 3468,
      "裂": 3469,
      "装": 3470,
      "裏": 3471,
      "裔": 3472,
      "裕": 3473,
      "裙": 3474,
      "補": 3475,
      "裝": 3476,
      "裡": 3477,
      "裤": 3478,
      "裴": 3479,
      "裸": 3480,
      "裹": 3481,
      "製": 3482,
      "複": 3483,
      "褐": 3484,
      "褪": 3485,
      "褲": 3486,
      "褶": 3487,
      "襠": 3488,
      "襪": 3489,
      "襯": 3490,
      "襲": 3491,
      "西": 3492,
      "要": 3493,
      "覆": 3494,
      "見": 3495,
      "規": 3496,
      "視": 3497,
      "覚": 3498,
      "親": 3499,
      "覺": 3500,
      "覽": 3501,
      "觀": 3502,
      "见": 3503,
      "观": 3504,
      "规": 3505,
      "视": 3506,
      "览": 3507,
      "觉": 3508,
      "角": 3509,
      "解": 3510,
      "触": 3511,
      "觸": 3512,
      "言": 3513,
      "訂": 3514,
      "計": 3515,
      "訊": 3516,
      "討": 3517,
      "訓": 3518,
      "託": 3519,
      "記": 3520,
      "訝": 3521,
      "訪": 3522,
      "設": 3523,
      "許": 3524,
      "訴": 3525,
      "診": 3526,
      "註": 3527,
      "証": 3528,
      "詐": 3529,
      "評": 3530,
      "詞": 3531,
      "詢": 3532,
      "試": 3533,
      "詩": 3534,
      "詭": 3535,
      "話": 3536,
      "該": 3537,
      "詳": 3538,
      "詹": 3539,
      "詼": 3540,
      "誉": 3541,
      "誌": 3542,
      "認": 3543,
      "誓": 3544,
      "誕": 3545,
      "誘": 3546,
      "語": 3547,
      "誠": 3548,
      "誡": 3549,
      "誤": 3550,
      "說": 3551,
      "説": 3552,
      "誰": 3553,
      "課": 3554,
      "誼": 3555,
      "調": 3556,
      "談": 3557,
      "請": 3558,
      "諒": 3559,
      "論": 3560,
      "諜": 3561,
      "諧": 3562,
      "諮": 3563,
      "諷": 3564,
      "諸": 3565,
      "諺": 3566,
      "諾": 3567,
      "謀": 3568,
      "謂": 3569,
      "謊": 3570,
      "謎": 3571,
      "謙": 3572,
      "講": 3573,
      "謝": 3574,
      "謠": 3575,
      "謨": 3576,
      "謬": 3577,
      "謹": 3578,
      "證": 3579,
      "識": 3580,
      "譚": 3581,
      "譜": 3582,
      "警": 3583,
      "譬": 3584,
      "譯": 3585,
      "議": 3586,
      "護": 3587,
      "譽": 3588,
      "讀": 3589,
      "變": 3590,
      "讓": 3591,
      "讚": 3592,
      "讞": 3593,
      "计": 3594,
      "订": 3595,
      "认": 3596,
      "讨": 3597,
      "让": 3598,
      "讪": 3599,
      "训": 3600,
      "议": 3601,
      "讯": 3602,
      "记": 3603,
      "讲": 3604,
      "讳": 3605,
      "讶": 3606,
      "许": 3607,
      "论": 3608,
      "设": 3609,
      "访": 3610,
      "诀": 3611,
      "证": 3612,
      "评": 3613,
      "诅": 3614,
      "识": 3615,
      "诉": 3616,
      "诊": 3617,
      "诋": 3618,
      "词": 3619,
      "译": 3620,
      "试": 3621,
      "诗": 3622,
      "诚": 3623,
      "话": 3624,
      "诞": 3625,
      "诡": 3626,
      "询": 3627,
      "诣": 3628,
      "该": 3629,
      "详": 3630,
      "语": 3631,
      "误": 3632,
      "诱": 3633,
      "说": 3634,
      "诶": 3635,
      "请": 3636,
      "诸": 3637,
      "诺": 3638,
      "读": 3639,
      "课": 3640,
      "谀": 3641,
      "谁": 3642,
      "调": 3643,
      "谅": 3644,
      "谈": 3645,
      "谊": 3646,
      "谋": 3647,
      "谍": 3648,
      "谎": 3649,
      "谐": 3650,
      "谓": 3651,
      "谚": 3652,
      "谛": 3653,
      "谜": 3654,
      "谢": 3655,
      "谣": 3656,
      "谦": 3657,
      "谧": 3658,
      "谨": 3659,
      "谬": 3660,
      "谱": 3661,
      "谴": 3662,
      "谷": 3663,
      "豆": 3664,
      "豇": 3665,
      "豌": 3666,
      "豎": 3667,
      "豐": 3668,
      "豚": 3669,
      "象": 3670,
      "豪": 3671,
      "豫": 3672,
      "豬": 3673,
      "豹": 3674,
      "豺": 3675,
      "貉": 3676,
      "貌": 3677,
      "貓": 3678,
      "貝": 3679,
      "貞": 3680,
      "負": 3681,
      "財": 3682,
      "貢": 3683,
      "貧": 3684,
      "貨": 3685,
      "販": 3686,
      "貪": 3687,
      "責": 3688,
      "貭": 3689,
      "貴": 3690,
      "買": 3691,
      "貸": 3692,
      "費": 3693,
      "貼": 3694,
      "貿": 3695,
      "賀": 3696,
      "賂": 3697,
      "賄": 3698,
      "資": 3699,
      "賊": 3700,
      "賒": 3701,
      "賓": 3702,
      "賜": 3703,
      "賞": 3704,
      "賠": 3705,
      "賢": 3706,
      "賣": 3707,
      "賦": 3708,
      "質": 3709,
      "賬": 3710,
      "賭": 3711,
      "賴": 3712,
      "賺": 3713,
      "購": 3714,
      "賽": 3715,
      "贈": 3716,
      "贊": 3717,
      "贏": 3718,
      "贝": 3719,
      "贞": 3720,
      "负": 3721,
      "贡": 3722,
      "财": 3723,
      "责": 3724,
      "贤": 3725,
      "败": 3726,
      "账": 3727,
      "货": 3728,
      "质": 3729,
      "贪": 3730,
      "贫": 3731,
      "贬": 3732,
      "购": 3733,
      "贯": 3734,
      "贱": 3735,
      "贴": 3736,
      "贵": 3737,
      "贷": 3738,
      "贸": 3739,
      "费": 3740,
      "贺": 3741,
      "贼": 3742,
      "贾": 3743,
      "贿": 3744,
      "赂": 3745,
      "资": 3746,
      "赋": 3747,
      "赌": 3748,
      "赎": 3749,
      "赏": 3750,
      "赐": 3751,
      "赔": 3752,
      "赖": 3753,
      "赘": 3754,
      "赚": 3755,
      "赛": 3756,
      "赝": 3757,
      "赞": 3758,
      "赠": 3759,
      "赡": 3760,
      "赢": 3761,
      "赤": 3762,
      "赫": 3763,
      "走": 3764,
      "赴": 3765,
      "赶": 3766,
      "起": 3767,
      "趁": 3768,
      "超": 3769,
      "越": 3770,
      "趋": 3771,
      "趕": 3772,
      "趟": 3773,
      "趣": 3774,
      "趨": 3775,
      "足": 3776,
      "趴": 3777,
      "趾": 3778,
      "跃": 3779,
      "跌": 3780,
      "跑": 3781,
      "跛": 3782,
      "距": 3783,
      "跟": 3784,
      "跡": 3785,
      "跤": 3786,
      "跨": 3787,
      "跪": 3788,
      "路": 3789,
      "跳": 3790,
      "践": 3791,
      "踏": 3792,
      "踐": 3793,
      "踝": 3794,
      "踢": 3795,
      "踩": 3796,
      "踪": 3797,
      "踫": 3798,
      "踮": 3799,
      "踵": 3800,
      "蹈": 3801,
      "蹋": 3802,
      "蹑": 3803,
      "蹟": 3804,
      "蹤": 3805,
      "蹦": 3806,
      "蹩": 3807,
      "蹭": 3808,
      "蹲": 3809,
      "躁": 3810,
      "躍": 3811,
      "身": 3812,
      "躬": 3813,
      "躲": 3814,
      "躺": 3815,
      "車": 3816,
      "軌": 3817,
      "軍": 3818,
      "軟": 3819,
      "軸": 3820,
      "較": 3821,
      "載": 3822,
      "輒": 3823,
      "輕": 3824,
      "輛": 3825,
      "輝": 3826,
      "輟": 3827,
      "輩": 3828,
      "輪": 3829,
      "輯": 3830,
      "輸": 3831,
      "輾": 3832,
      "輿": 3833,
      "轉": 3834,
      "轟": 3835,
      "车": 3836,
      "轨": 3837,
      "转": 3838,
      "轮": 3839,
      "软": 3840,
      "轰": 3841,
      "轻": 3842,
      "载": 3843,
      "轿": 3844,
      "较": 3845,
      "辅": 3846,
      "辆": 3847,
      "辈": 3848,
      "辑": 3849,
      "输": 3850,
      "辗": 3851,
      "辘": 3852,
      "辙": 3853,
      "辛": 3854,
      "辜": 3855,
      "辞": 3856,
      "辣": 3857,
      "辦": 3858,
      "辨": 3859,
      "辩": 3860,
      "辫": 3861,
      "辭": 3862,
      "辮": 3863,
      "辯": 3864,
      "辰": 3865,
      "辱": 3866,
      "農": 3867,
      "边": 3868,
      "辽": 3869,
      "达": 3870,
      "迄": 3871,
      "迅": 3872,
      "过": 3873,
      "迈": 3874,
      "迎": 3875,
      "运": 3876,
      "近": 3877,
      "返": 3878,
      "还": 3879,
      "这": 3880,
      "进": 3881,
      "远": 3882,
      "违": 3883,
      "连": 3884,
      "迟": 3885,
      "迦": 3886,
      "迪": 3887,
      "迫": 3888,
      "迭": 3889,
      "述": 3890,
      "迴": 3891,
      "迷": 3892,
      "迹": 3893,
      "迺": 3894,
      "追": 3895,
      "退": 3896,
      "送": 3897,
      "适": 3898,
      "逃": 3899,
      "逆": 3900,
      "选": 3901,
      "逊": 3902,
      "逍": 3903,
      "透": 3904,
      "逐": 3905,
      "递": 3906,
      "途": 3907,
      "逕": 3908,
      "逗": 3909,
      "這": 3910,
      "通": 3911,
      "逛": 3912,
      "逝": 3913,
      "速": 3914,
      "造": 3915,
      "逢": 3916,
      "連": 3917,
      "逮": 3918,
      "週": 3919,
      "進": 3920,
      "逸": 3921,
      "逻": 3922,
      "逼": 3923,
      "遂": 3924,
      "遅": 3925,
      "遇": 3926,
      "遊": 3927,
      "運": 3928,
      "遍": 3929,
      "過": 3930,
      "遏": 3931,
      "遑": 3932,
      "道": 3933,
      "達": 3934,
      "違": 3935,
      "遗": 3936,
      "遙": 3937,
      "遛": 3938,
      "遜": 3939,
      "遞": 3940,
      "遠": 3941,
      "遣": 3942,
      "遥": 3943,
      "適": 3944,
      "遭": 3945,
      "遮": 3946,
      "遲": 3947,
      "遵": 3948,
      "遷": 3949,
      "選": 3950,
      "遺": 3951,
      "避": 3952,
      "邀": 3953,
      "邁": 3954,
      "還": 3955,
      "邊": 3956,
      "邏": 3957,
      "邓": 3958,
      "那": 3959,
      "邦": 3960,
      "邪": 3961,
      "邮": 3962,
      "邱": 3963,
      "邸": 3964,
      "邻": 3965,
      "郁": 3966,
      "郊": 3967,
      "郎": 3968,
      "郑": 3969,
      "部": 3970,
      "郵": 3971,
      "都": 3972,
      "鄉": 3973,
      "鄙": 3974,
      "鄰": 3975,
      "酊": 3976,
      "配": 3977,
      "酒": 3978,
      "酗": 3979,
      "酝": 3980,
      "酣": 3981,
      "酩": 3982,
      "酪": 3983,
      "酬": 3984,
      "酯": 3985,
      "酱": 3986,
      "酵": 3987,
      "酷": 3988,
      "酸": 3989,
      "酿": 3990,
      "醇": 3991,
      "醉": 3992,
      "醋": 3993,
      "醒": 3994,
      "醜": 3995,
      "醞": 3996,
      "醫": 3997,
      "醬": 3998,
      "醺": 3999,
      "釀": 4000,
      "采": 4001,
      "释": 4002,
      "釋": 4003,
      "里": 4004,
      "重": 4005,
      "野": 4006,
      "量": 4007,
      "金": 4008,
      "釘": 4009,
      "針": 4010,
      "釣": 4011,
      "釦": 4012,
      "釧": 4013,
      "鈔": 4014,
      "鈕": 4015,
      "鈴": 4016,
      "鈽": 4017,
      "鉄": 4018,
      "鉛": 4019,
      "鉤": 4020,
      "鉴": 4021,
      "銀": 4022,
      "銅": 4023,
      "銬": 4024,
      "銳": 4025,
      "銷": 4026,
      "鋌": 4027,
      "鋒": 4028,
      "鋪": 4029,
      "鋼": 4030,
      "錄": 4031,
      "錘": 4032,
      "錢": 4033,
      "錦": 4034,
      "錨": 4035,
      "錫": 4036,
      "錯": 4037,
      "錶": 4038,
      "鍊": 4039,
      "鍋": 4040,
      "鍛": 4041,
      "鍵": 4042,
      "鍾": 4043,
      "鎊": 4044,
      "鎖": 4045,
      "鎮": 4046,
      "鏈": 4047,
      "鏗": 4048,
      "鏘": 4049,
      "鏟": 4050,
      "鏡": 4051,
      "鏽": 4052,
      "鐘": 4053,
      "鐳": 4054,
      "鐵": 4055,
      "鑄": 4056,
      "鑑": 4057,
      "鑒": 4058,
      "鑰": 4059,
      "鑲": 4060,
      "鑼": 4061,
      "鑽": 4062,
      "针": 4063,
      "钉": 4064,
      "钓": 4065,
      "钝": 4066,
      "钞": 4067,
      "钟": 4068,
      "钢": 4069,
      "钥": 4070,
      "钦": 4071,
      "钮": 4072,
      "钱": 4073,
      "钳": 4074,
      "钻": 4075,
      "铁": 4076,
      "铂": 4077,
      "铃": 4078,
      "铅": 4079,
      "铐": 4080,
      "铜": 4081,
      "铝": 4082,
      "铭": 4083,
      "铲": 4084,
      "银": 4085,
      "铸": 4086,
      "铺": 4087,
      "链": 4088,
      "销": 4089,
      "锁": 4090,
      "锄": 4091,
      "锅": 4092,
      "锈": 4093,
      "锋": 4094,
      "锐": 4095,
      "锕": 4096,
      "错": 4097,
      "锤": 4098,
      "锦": 4099,
      "键": 4100,
      "锯": 4101,
      "锻": 4102,
      "镇": 4103,
      "镊": 4104,
      "镑": 4105,
      "镜": 4106,
      "镰": 4107,
      "镶": 4108,
      "長": 4109,
      "长": 4110,
      "門": 4111,
      "閃": 4112,
      "閉": 4113,
      "開": 4114,
      "閒": 4115,
      "間": 4116,
      "閣": 4117,
      "閤": 4118,
      "閨": 4119,
      "閱": 4120,
      "闆": 4121,
      "闊": 4122,
      "闌": 4123,
      "闔": 4124,
      "闖": 4125,
      "關": 4126,
      "闢": 4127,
      "门": 4128,
      "闪": 4129,
      "闭": 4130,
      "问": 4131,
      "闯": 4132,
      "闲": 4133,
      "间": 4134,
      "闷": 4135,
      "闸": 4136,
      "闹": 4137,
      "闺": 4138,
      "闻": 4139,
      "阁": 4140,
      "阅": 4141,
      "阐": 4142,
      "阔": 4143,
      "队": 4144,
      "阪": 4145,
      "阱": 4146,
      "防": 4147,
      "阳": 4148,
      "阴": 4149,
      "阵": 4150,
      "阶": 4151,
      "阻": 4152,
      "阿": 4153,
      "附": 4154,
      "际": 4155,
      "陆": 4156,
      "陈": 4157,
      "陋": 4158,
      "陌": 4159,
      "降": 4160,
      "限": 4161,
      "陡": 4162,
      "院": 4163,
      "陣": 4164,
      "除": 4165,
      "陨": 4166,
      "险": 4167,
      "陪": 4168,
      "陰": 4169,
      "陳": 4170,
      "陵": 4171,
      "陶": 4172,
      "陷": 4173,
      "陸": 4174,
      "陽": 4175,
      "隆": 4176,
      "隊": 4177,
      "階": 4178,
      "随": 4179,
      "隐": 4180,
      "隔": 4181,
      "隘": 4182,
      "隙": 4183,
      "際": 4184,
      "障": 4185,
      "隧": 4186,
      "隨": 4187,
      "險": 4188,
      "隱": 4189,
      "隶": 4190,
      "隸": 4191,
      "隻": 4192,
      "难": 4193,
      "雀": 4194,
      "雄": 4195,
      "雅": 4196,
      "集": 4197,
      "雇": 4198,
      "雌": 4199,
      "雏": 4200,
      "雕": 4201,
      "雖": 4202,
      "雙": 4203,
      "雜": 4204,
      "雞": 4205,
      "離": 4206,
      "難": 4207,
      "雨": 4208,
      "雪": 4209,
      "雲": 4210,
      "雳": 4211,
      "零": 4212,
      "雷": 4213,
      "雹": 4214,
      "電": 4215,
      "雾": 4216,
      "需": 4217,
      "霆": 4218,
      "震": 4219,
      "霉": 4220,
      "霍": 4221,
      "霜": 4222,
      "霞": 4223,
      "霧": 4224,
      "霭": 4225,
      "露": 4226,
      "霸": 4227,
      "霹": 4228,
      "霾": 4229,
      "靈": 4230,
      "青": 4231,
      "靓": 4232,
      "静": 4233,
      "靜": 4234,
      "非": 4235,
      "靠": 4236,
      "靡": 4237,
      "面": 4238,
      "靦": 4239,
      "革": 4240,
      "靴": 4241,
      "鞋": 4242,
      "鞠": 4243,
      "鞭": 4244,
      "韋": 4245,
      "韓": 4246,
      "韧": 4247,
      "韩": 4248,
      "音": 4249,
      "韵": 4250,
      "韻": 4251,
      "響": 4252,
      "頁": 4253,
      "頂": 4254,
      "項": 4255,
      "順": 4256,
      "須": 4257,
      "預": 4258,
      "頑": 4259,
      "頒": 4260,
      "頓": 4261,
      "頗": 4262,
      "領": 4263,
      "頬": 4264,
      "頭": 4265,
      "頰": 4266,
      "頸": 4267,
      "頻": 4268,
      "顆": 4269,
      "題": 4270,
      "額": 4271,
      "顏": 4272,
      "顔": 4273,
      "願": 4274,
      "顛": 4275,
      "類": 4276,
      "顧": 4277,
      "顫": 4278,
      "顯": 4279,
      "页": 4280,
      "顶": 4281,
      "项": 4282,
      "顺": 4283,
      "须": 4284,
      "顽": 4285,
      "顾": 4286,
      "顿": 4287,
      "颁": 4288,
      "预": 4289,
      "领": 4290,
      "颇": 4291,
      "颈": 4292,
      "颊": 4293,
      "频": 4294,
      "颖": 4295,
      "颗": 4296,
      "题": 4297,
      "颚": 4298,
      "颜": 4299,
      "额": 4300,
      "颠": 4301,
      "颤": 4302,
      "風": 4303,
      "颱": 4304,
      "颳": 4305,
      "飄": 4306,
      "飆": 4307,
      "风": 4308,
      "飘": 4309,
      "飛": 4310,
      "飞": 4311,
      "食": 4312,
      "飢": 4313,
      "飪": 4314,
      "飯": 4315,
      "飲": 4316,
      "飽": 4317,
      "飾": 4318,
      "餃": 4319,
      "餅": 4320,
      "養": 4321,
      "餐": 4322,
      "餒": 4323,
      "餓": 4324,
      "餘": 4325,
      "餡": 4326,
      "館": 4327,
      "餵": 4328,
      "饑": 4329,
      "饒": 4330,
      "饥": 4331,
      "饪": 4332,
      "饭": 4333,
      "饮": 4334,
      "饰": 4335,
      "饱": 4336,
      "饶": 4337,
      "饺": 4338,
      "饼": 4339,
      "饿": 4340,
      "馁": 4341,
      "馅": 4342,
      "馆": 4343,
      "馈": 4344,
      "馊": 4345,
      "馋": 4346,
      "馒": 4347,
      "馓": 4348,
      "馕": 4349,
      "首": 4350,
      "香": 4351,
      "馨": 4352,
      "馬": 4353,
      "馳": 4354,
      "駒": 4355,
      "駕": 4356,
      "駛": 4357,
      "駝": 4358,
      "駟": 4359,
      "駭": 4360,
      "駱": 4361,
      "駿": 4362,
      "騎": 4363,
      "騙": 4364,
      "騰": 4365,
      "騷": 4366,
      "騾": 4367,
      "驅": 4368,
      "驕": 4369,
      "驗": 4370,
      "驚": 4371,
      "驢": 4372,
      "马": 4373,
      "驮": 4374,
      "驯": 4375,
      "驱": 4376,
      "驳": 4377,
      "驶": 4378,
      "驻": 4379,
      "驼": 4380,
      "驾": 4381,
      "骂": 4382,
      "骄": 4383,
      "骆": 4384,
      "验": 4385,
      "骑": 4386,
      "骗": 4387,
      "骚": 4388,
      "骡": 4389,
      "骤": 4390,
      "骨": 4391,
      "骯": 4392,
      "骰": 4393,
      "骸": 4394,
      "髒": 4395,
      "髓": 4396,
      "體": 4397,
      "髖": 4398,
      "高": 4399,
      "髦": 4400,
      "髪": 4401,
      "髮": 4402,
      "鬆": 4403,
      "鬍": 4404,
      "鬚": 4405,
      "鬟": 4406,
      "鬥": 4407,
      "鬧": 4408,
      "鬪": 4409,
      "鬱": 4410,
      "鬼": 4411,
      "魁": 4412,
      "魂": 4413,
      "魄": 4414,
      "魅": 4415,
      "魔": 4416,
      "魚": 4417,
      "魯": 4418,
      "魷": 4419,
      "鮑": 4420,
      "鮪": 4421,
      "鮭": 4422,
      "鮮": 4423,
      "鯊": 4424,
      "鯨": 4425,
      "鰥": 4426,
      "鱔": 4427,
      "鱼": 4428,
      "鱿": 4429,
      "鲁": 4430,
      "鲍": 4431,
      "鲑": 4432,
      "鲜": 4433,
      "鲟": 4434,
      "鲤": 4435,
      "鲱": 4436,
      "鲷": 4437,
      "鲸": 4438,
      "鳄": 4439,
      "鳕": 4440,
      "鳟": 4441,
      "鳥": 4442,
      "鳳": 4443,
      "鳴": 4444,
      "鴉": 4445,
      "鴕": 4446,
      "鴨": 4447,
      "鴿": 4448,
      "鵝": 4449,
      "鵡": 4450,
      "鶴": 4451,
      "鷗": 4452,
      "鷹": 4453,
      "鸚": 4454,
      "鸟": 4455,
      "鸠": 4456,
      "鸡": 4457,
      "鸣": 4458,
      "鸦": 4459,
      "鸫": 4460,
      "鸭": 4461,
      "鸮": 4462,
      "鸵": 4463,
      "鸽": 4464,
      "鹅": 4465,
      "鹘": 4466,
      "鹤": 4467,
      "鹭": 4468,
      "鹰": 4469,
      "鹳": 4470,
      "鹹": 4471,
      "鹽": 4472,
      "鹿": 4473,
      "麗": 4474,
      "麥": 4475,
      "麦": 4476,
      "麵": 4477,
      "麻": 4478,
      "麼": 4479,
      "麽": 4480,
      "黃": 4481,
      "黄": 4482,
      "黎": 4483,
      "黏": 4484,
      "黑": 4485,
      "默": 4486,
      "黛": 4487,
      "點": 4488,
      "黨": 4489,
      "鼎": 4490,
      "鼓": 4491,
      "鼠": 4492,
      "鼬": 4493,
      "鼻": 4494,
      "鼾": 4495,
      "齊": 4496,
      "齐": 4497,
      "齒": 4498,
      "齡": 4499,
      "齦": 4500,
      "齿": 4501,
      "龄": 4502,
      "龍": 4503,
      "龐": 4504,
      "龙": 4505,
      "龜": 4506,
      "龟": 4507,
      "︀": 4508,
      "﹐": 4509,
      "﹣": 4510,
      "！": 4511,
      "＂": 4512,
      "％": 4513,
      "（": 4514,
      "）": 4515,
      "，": 4516,
      "－": 4517,
      "０": 4518,
      "１": 4519,
      "３": 4520,
      "５": 4521,
      "６": 4522,
      "８": 4523,
      "：": 4524,
      "；": 4525,
      "？": 4526,
      "Ｑ": 4527,
      "～": 4528,
      "𣬠": 4529,
      "𣬶": 4530,
      "he": 4531,
      "in": 4532,
      "ou": 4533,
      "re": 4534,
      "is": 4535,
      "an": 4536,
      "the": 4537,
      "to": 4538,
      "on": 4539,
      "at": 4540,
      "er": 4541,
      "th": 4542,
      "om": 4543,
      "you": 4544,
      "as": 4545,
      "ing": 4546,
      "en": 4547,
      "or": 4548,
      "ar": 4549,
      "ed": 4550,
      "ll": 4551,
      "es": 4552,
      "ve": 4553,
      "it": 4554,
      "le": 4555,
      "st": 4556,
      "me": 4557,
      "ow": 4558,
      "of": 4559,
      "ay": 4560,
      "ha": 4561,
      "be": 4562,
      "li": 4563,
      "se": 4564,
      "The": 4565,
      "Tom": 4566,
      "ot": 4567,
      "ch": 4568,
      "ld": 4569,
      "al": 4570,
      "ke": 4571,
      "id": 4572,
      "He": 4573,
      "ver": 4574,
      "oo": 4575,
      "do": 4576,
      "wi": 4577,
      "and": 4578,
      "are": 4579,
      "ic": 4580,
      "hat": 4581,
      "for": 4582,
      "gh": 4583,
      "ti": 4584,
      "that": 4585,
      "his": 4586,
      "all": 4587,
      "ad": 4588,
      "was": 4589,
      "we": 4590,
      "ri": 4591,
      "ter": 4592,
      "ac": 4593,
      "ome": 4594,
      "have": 4595,
      "ne": 4596,
      "ly": 4597,
      "ent": 4598,
      "ro": 4599,
      "et": 4600,
      "one": 4601,
      "汤姆": 4602,
      "go": 4603,
      "my": 4604,
      "un": 4605,
      "us": 4606,
      "pe": 4607,
      "not": 4608,
      "am": 4609,
      "hi": 4610,
      "now": 4611,
      "You": 4612,
      "ther": 4613,
      "She": 4614,
      "ght": 4615,
      "very": 4616,
      "ant": 4617,
      "can": 4618,
      "ould": 4619,
      "this": 4620,
      "your": 4621,
      "ir": 4622,
      "mo": 4623,
      "te": 4624,
      "day": 4625,
      "ab": 4626,
      "out": 4627,
      "with": 4628,
      "我的": 4629,
      "fe": 4630,
      "ce": 4631,
      "lo": 4632,
      "It": 4633,
      "ur": 4634,
      "我们": 4635,
      "her": 4636,
      "We": 4637,
      "ook": 4638,
      "ho": 4639,
      "like": 4640,
      "any": 4641,
      "ap": 4642,
      "wor": 4643,
      "ut": 4644,
      "tr": 4645,
      "ag": 4646,
      "我們": 4647,
      "here": 4648,
      "don": 4649,
      "ain": 4650,
      "pl": 4651,
      "湯姆": 4652,
      "什么": 4653,
      "ak": 4654,
      "know": 4655,
      "want": 4656,
      "ion": 4657,
      "so": 4658,
      "What": 4659,
      "up": 4660,
      "did": 4661,
      "has": 4662,
      "thing": 4663,
      "知道": 4664,
      "ple": 4665,
      "ary": 4666,
      "fr": 4667,
      "end": 4668,
      "him": 4669,
      "This": 4670,
      "will": 4671,
      "no": 4672,
      "我不": 4673,
      "\"\"": 4674,
      "ood": 4675,
      "ink": 4676,
      "sh": 4677,
      "你的": 4678,
      "ust": 4679,
      "ake": 4680,
      "de": 4681,
      "ish": 4682,
      "po": 4683,
      "他的": 4684,
      "Do": 4685,
      "My": 4686,
      "ong": 4687,
      "su": 4688,
      "com": 4689,
      "ill": 4690,
      "time": 4691,
      "ang": 4692,
      "oun": 4693,
      "bo": 4694,
      "ast": 4695,
      "ry": 4696,
      "get": 4697,
      "ul": 4698,
      "our": 4699,
      "red": 4700,
      "sa": 4701,
      "ear": 4702,
      "ate": 4703,
      "from": 4704,
      "way": 4705,
      "co": 4706,
      "hen": 4707,
      "il": 4708,
      "ase": 4709,
      "ard": 4710,
      "some": 4711,
      "ng": 4712,
      "ex": 4713,
      "if": 4714,
      "au": 4715,
      "Mary": 4716,
      "spe": 4717,
      "ind": 4718,
      "by": 4719,
      "不是": 4720,
      "ave": 4721,
      "没有": 4722,
      "con": 4723,
      "think": 4724,
      "ud": 4725,
      "what": 4726,
      "qu": 4727,
      "ren": 4728,
      "too": 4729,
      "ist": 4730,
      "How": 4731,
      "work": 4732,
      "im": 4733,
      "ight": 4734,
      "一个": 4735,
      "ally": 4736,
      "art": 4737,
      "ation": 4738,
      "read": 4739,
      "ers": 4740,
      "come": 4741,
      "可以": 4742,
      "pp": 4743,
      "book": 4744,
      "had": 4745,
      "but": 4746,
      "ess": 4747,
      "about": 4748,
      "ive": 4749,
      "They": 4750,
      "she": 4751,
      "good": 4752,
      "fa": 4753,
      "sto": 4754,
      "res": 4755,
      "see": 4756,
      "一個": 4757,
      "什麼": 4758,
      "沒有": 4759,
      "喜欢": 4760,
      "ame": 4761,
      "est": 4762,
      "does": 4763,
      "他们": 4764,
      "这个": 4765,
      "man": 4766,
      "fo": 4767,
      "stud": 4768,
      "pro": 4769,
      "mor": 4770,
      "ack": 4771,
      "row": 4772,
      "there": 4773,
      "than": 4774,
      "didn": 4775,
      "ct": 4776,
      "ree": 4777,
      "There": 4778,
      "ten": 4779,
      "我想": 4780,
      "speak": 4781,
      "got": 4782,
      "工作": 4783,
      "ass": 4784,
      "ite": 4785,
      "ep": 4786,
      "tion": 4787,
      "should": 4788,
      "der": 4789,
      "ven": 4790,
      "more": 4791,
      "going": 4792,
      "hy": 4793,
      "alk": 4794,
      "every": 4795,
      "fri": 4796,
      "ous": 4797,
      "喜歡": 4798,
      "That": 4799,
      "eat": 4800,
      "look": 4801,
      "new": 4802,
      "ck": 4803,
      "car": 4804,
      "ine": 4805,
      "friend": 4806,
      "el": 4807,
      "pr": 4808,
      "今天": 4809,
      "Eng": 4810,
      "ople": 4811,
      "Engl": 4812,
      "home": 4813,
      "ice": 4814,
      "ool": 4815,
      "他們": 4816,
      "ound": 4817,
      "ig": 4818,
      "year": 4819,
      "been": 4820,
      "ble": 4821,
      "ought": 4822,
      "um": 4823,
      "了一": 4824,
      "age": 4825,
      "wr": 4826,
      "would": 4827,
      "were": 4828,
      "朋友": 4829,
      "English": 4830,
      "Don": 4831,
      "need": 4832,
      "say": 4833,
      "自己": 4834,
      "ese": 4835,
      "long": 4836,
      "sp": 4837,
      "玛丽": 4838,
      "ide": 4839,
      "lf": 4840,
      "wo": 4841,
      "ort": 4842,
      "這個": 4843,
      "mu": 4844,
      "wat": 4845,
      "people": 4846,
      "lp": 4847,
      "tter": 4848,
      "happ": 4849,
      "Ch": 4850,
      "play": 4851,
      "bu": 4852,
      "sch": 4853,
      "我在": 4854,
      "ved": 4855,
      "ity": 4856,
      "just": 4857,
      "ning": 4858,
      "Is": 4859,
      "help": 4860,
      "af": 4861,
      "able": 4862,
      "much": 4863,
      "不要": 4864,
      "ild": 4865,
      "other": 4866,
      "时候": 4867,
      "fore": 4868,
      "school": 4869,
      "bus": 4870,
      "很多": 4871,
      "ans": 4872,
      "yes": 4873,
      "到了": 4874,
      "own": 4875,
      "的人": 4876,
      "Are": 4877,
      "last": 4878,
      "many": 4879,
      "old": 4880,
      "需要": 4881,
      "ie": 4882,
      "who": 4883,
      "off": 4884,
      "她的": 4885,
      "room": 4886,
      "如果": 4887,
      "when": 4888,
      "ty": 4889,
      "ge": 4890,
      "pen": 4891,
      "doesn": 4892,
      "really": 4893,
      "si": 4894,
      "ure": 4895,
      "hed": 4896,
      "lease": 4897,
      "Can": 4898,
      "gr": 4899,
      "dr": 4900,
      "可能": 4901,
      "ick": 4902,
      "Please": 4903,
      "back": 4904,
      "apan": 4905,
      "Japan": 4906,
      "night": 4907,
      "No": 4908,
      "ves": 4909,
      "two": 4910,
      "they": 4911,
      "cl": 4912,
      "ade": 4913,
      "could": 4914,
      "ways": 4915,
      "If": 4916,
      "never": 4917,
      "jo": 4918,
      "rest": 4919,
      "said": 4920,
      "father": 4921,
      "bro": 4922,
      "ber": 4923,
      "Where": 4924,
      "ful": 4925,
      "我是": 4926,
      "ts": 4927,
      "怎么": 4928,
      "When": 4929,
      "self": 4930,
      "oney": 4931,
      "明天": 4932,
      "昨天": 4933,
      "urn": 4934,
      "hou": 4935,
      "take": 4936,
      "isn": 4937,
      "ving": 4938,
      "itt": 4939,
      "Why": 4940,
      "br": 4941,
      "ask": 4942,
      "bl": 4943,
      "In": 4944,
      "他是": 4945,
      "ace": 4946,
      "always": 4947,
      "per": 4948,
      "tell": 4949,
      "ue": 4950,
      "today": 4951,
      "love": 4952,
      "only": 4953,
      "ach": 4954,
      "child": 4955,
      "made": 4956,
      "lot": 4957,
      "Chin": 4958,
      "dy": 4959,
      "under": 4960,
      "pre": 4961,
      "非常": 4962,
      "tomor": 4963,
      "tomorrow": 4964,
      "how": 4965,
      "ried": 4966,
      "terday": 4967,
      "cle": 4968,
      "money": 4969,
      "went": 4970,
      "house": 4971,
      "call": 4972,
      "well": 4973,
      "ci": 4974,
      "stand": 4975,
      "Let": 4976,
      "talk": 4977,
      "ough": 4978,
      "still": 4979,
      "right": 4980,
      "孩子": 4981,
      "cau": 4982,
      "Who": 4983,
      "clo": 4984,
      "over": 4985,
      "won": 4986,
      "them": 4987,
      "ies": 4988,
      "mer": 4989,
      "这是": 4990,
      "mar": 4991,
      "ra": 4992,
      "在哪": 4993,
      "try": 4994,
      "gre": 4995,
      "must": 4996,
      "wa": 4997,
      "不能": 4998,
      "make": 4999,
      "我一": 5000,
      "時候": 5001,
      "use": 5002,
      "di": 5003,
      "ress": 5004,
      "body": 5005,
      "study": 5006,
      "00": 5007,
      "came": 5008,
      "日本": 5009,
      "ready": 5010,
      "真的": 5011,
      "有一": 5012,
      "mother": 5013,
      "fl": 5014,
      "late": 5015,
      "live": 5016,
      "better": 5017,
      "years": 5018,
      "现在": 5019,
      "comp": 5020,
      "xt": 5021,
      "again": 5022,
      "yesterday": 5023,
      "dis": 5024,
      "after": 5025,
      "rain": 5026,
      "ance": 5027,
      "port": 5028,
      "three": 5029,
      "就是": 5030,
      "tor": 5031,
      "ence": 5032,
      "fin": 5033,
      "where": 5034,
      "His": 5035,
      "hard": 5036,
      "lie": 5037,
      "plan": 5038,
      "buy": 5039,
      "已經": 5040,
      "正在": 5041,
      "dif": 5042,
      "rench": 5043,
      "before": 5044,
      "ittle": 5045,
      "很好": 5046,
      "French": 5047,
      "mat": 5048,
      "To": 5049,
      "little": 5050,
      "turn": 5051,
      "down": 5052,
      "their": 5053,
      "feel": 5054,
      "mon": 5055,
      "ph": 5056,
      "wait": 5057,
      "cat": 5058,
      "gu": 5059,
      "cause": 5060,
      "告诉": 5061,
      "所有": 5062,
      "为什么": 5063,
      "任何": 5064,
      "我很": 5065,
      "ek": 5066,
      "next": 5067,
      "Every": 5068,
      "时间": 5069,
      "something": 5070,
      "ms": 5071,
      "一下": 5072,
      "leep": 5073,
      "used": 5074,
      "ami": 5075,
      "ft": 5076,
      "whi": 5077,
      "coun": 5078,
      "part": 5079,
      "世界": 5080,
      "life": 5081,
      "most": 5082,
      "angu": 5083,
      "che": 5084,
      "told": 5085,
      "Did": 5086,
      "lear": 5087,
      "into": 5088,
      "irst": 5089,
      "care": 5090,
      "ment": 5091,
      "應該": 5092,
      "你在": 5093,
      "是一": 5094,
      "觉得": 5095,
      "teac": 5096,
      "ever": 5097,
      "的事": 5098,
      "这里": 5099,
      "你想": 5100,
      "anything": 5101,
      "friends": 5102,
      "应该": 5103,
      "give": 5104,
      "你有": 5105,
      "希望": 5106,
      "甚麼": 5107,
      "week": 5108,
      "act": 5109,
      "langu": 5110,
      "你是": 5111,
      "bre": 5112,
      "name": 5113,
      "已经": 5114,
      "Have": 5115,
      "我要": 5116,
      "\"\"\"": 5117,
      "brother": 5118,
      "bed": 5119,
      "pt": 5120,
      "iss": 5121,
      "stay": 5122,
      "aren": 5123,
      "Bo": 5124,
      "fi": 5125,
      "cid": 5126,
      "不会": 5127,
      "的时候": 5128,
      "student": 5129,
      "你们": 5130,
      "pos": 5131,
      "fic": 5132,
      "str": 5133,
      "already": 5134,
      "現在": 5135,
      "问题": 5136,
      "akes": 5137,
      "gir": 5138,
      "sm": 5139,
      "drink": 5140,
      "一起": 5141,
      "dog": 5142,
      "walk": 5143,
      "left": 5144,
      "watch": 5145,
      "understand": 5146,
      "proble": 5147,
      "Chinese": 5148,
      "teacher": 5149,
      "train": 5150,
      "please": 5151,
      "bor": 5152,
      "hand": 5153,
      "may": 5154,
      "你不": 5155,
      "去了": 5156,
      "多少": 5157,
      "girl": 5158,
      "first": 5159,
      "但是": 5160,
      "vis": 5161,
      "住在": 5162,
      "他在": 5163,
      "我有": 5164,
      "word": 5165,
      "happen": 5166,
      "ark": 5167,
      "kes": 5168,
      "怎麼": 5169,
      "start": 5170,
      "water": 5171,
      "soon": 5172,
      "ank": 5173,
      "morning": 5174,
      "每天": 5175,
      "aid": 5176,
      "put": 5177,
      "瑪麗": 5178,
      "bought": 5179,
      "world": 5180,
      "那个": 5181,
      "thought": 5182,
      "生活": 5183,
      "happy": 5184,
      "房子": 5185,
      "An": 5186,
      "ated": 5187,
      "air": 5188,
      "boy": 5189,
      "gave": 5190,
      "ise": 5191,
      "eas": 5192,
      "好的": 5193,
      "给我": 5194,
      "tim": 5195,
      "這裡": 5196,
      "bit": 5197,
      "even": 5198,
      "不知道": 5199,
      "英語": 5200,
      "cold": 5201,
      "med": 5202,
      "pass": 5203,
      "sing": 5204,
      "我知道": 5205,
      "let": 5206,
      "Japanese": 5207,
      "phone": 5208,
      "不會": 5209,
      "inte": 5210,
      "children": 5211,
      "cre": 5212,
      "星期": 5213,
      "ma": 5214,
      "ull": 5215,
      "pers": 5216,
      "sleep": 5217,
      "学习": 5218,
      "interest": 5219,
      "aw": 5220,
      "find": 5221,
      "ian": 5222,
      "meet": 5223,
      "because": 5224,
      "days": 5225,
      "sent": 5226,
      "开始": 5227,
      "lost": 5228,
      "相信": 5229,
      "這是": 5230,
      "人都": 5231,
      "belie": 5232,
      "sk": 5233,
      "ange": 5234,
      "fast": 5235,
      "sho": 5236,
      "所以": 5237,
      "int": 5238,
      "young": 5239,
      "class": 5240,
      "doing": 5241,
      "東西": 5242,
      "person": 5243,
      "起来": 5244,
      "ket": 5245,
      "..": 5246,
      "Be": 5247,
      "告訴": 5248,
      "asked": 5249,
      "took": 5250,
      "cer": 5251,
      "我不知道": 5252,
      "auti": 5253,
      "learn": 5254,
      "hour": 5255,
      "pic": 5256,
      "了吗": 5257,
      "名字": 5258,
      "回家": 5259,
      "beauti": 5260,
      "ult": 5261,
      "cor": 5262,
      "意思": 5263,
      "ath": 5264,
      "letter": 5265,
      "likes": 5266,
      "ign": 5267,
      "best": 5268,
      "gl": 5269,
      "min": 5270,
      "因为": 5271,
      "ars": 5272,
      "tain": 5273,
      "問題": 5274,
      "有人": 5275,
      "dri": 5276,
      "swi": 5277,
      "认为": 5278,
      "都是": 5279,
      "sure": 5280,
      "estion": 5281,
      "saw": 5282,
      "ting": 5283,
      "beg": 5284,
      "我會": 5285,
      "我看": 5286,
      "ister": 5287,
      "often": 5288,
      "ather": 5289,
      "你能": 5290,
      "起來": 5291,
      "cannot": 5292,
      "beautiful": 5293,
      "Th": 5294,
      "件事": 5295,
      "mean": 5296,
      "problem": 5297,
      "big": 5298,
      "ss": 5299,
      "door": 5300,
      "ser": 5301,
      "了嗎": 5302,
      "的時候": 5303,
      "必须": 5304,
      "ished": 5305,
      "一次": 5306,
      "books": 5307,
      "show": 5308,
      "job": 5309,
      "times": 5310,
      "less": 5311,
      "mem": 5312,
      "keep": 5313,
      "busy": 5314,
      "ious": 5315,
      "great": 5316,
      "vo": 5317,
      "英语": 5318,
      "覺得": 5319,
      "Your": 5320,
      "em": 5321,
      "蘋果": 5322,
      "tired": 5323,
      "時間": 5324,
      "開始": 5325,
      "month": 5326,
      "All": 5327,
      "ner": 5328,
      "以前": 5329,
      "大的": 5330,
      "leave": 5331,
      "hot": 5332,
      "kind": 5333,
      "run": 5334,
      "地方": 5335,
      "its": 5336,
      "seen": 5337,
      "als": 5338,
      "自己的": 5339,
      "ball": 5340,
      "咖啡": 5341,
      "cent": 5342,
      "open": 5343,
      "orry": 5344,
      "arri": 5345,
      "swim": 5346,
      "那是": 5347,
      "fee": 5348,
      "Jo": 5349,
      "dre": 5350,
      "des": 5351,
      "东西": 5352,
      "these": 5353,
      "bad": 5354,
      "meric": 5355,
      "side": 5356,
      "我会": 5357,
      "色的": 5358,
      "重要": 5359,
      "ital": 5360,
      "Americ": 5361,
      "Some": 5362,
      "ually": 5363,
      "早上": 5364,
      "without": 5365,
      "question": 5366,
      "sister": 5367,
      "language": 5368,
      "full": 5369,
      "miss": 5370,
      "yo": 5371,
      "电话": 5372,
      "wom": 5373,
      "游泳": 5374,
      "那么": 5375,
      "hair": 5376,
      "knows": 5377,
      "gg": 5378,
      "offee": 5379,
      "away": 5380,
      "dress": 5381,
      "ect": 5382,
      "writ": 5383,
      "light": 5384,
      "aking": 5385,
      "things": 5386,
      "May": 5387,
      "你們": 5388,
      "是个": 5389,
      "found": 5390,
      "lu": 5391,
      "你最": 5392,
      "做了": 5393,
      "food": 5394,
      "wer": 5395,
      "yet": 5396,
      "doc": 5397,
      "reading": 5398,
      "list": 5399,
      "hear": 5400,
      "op": 5401,
      "sur": 5402,
      "下雨": 5403,
      "房間": 5404,
      "電話": 5405,
      "around": 5406,
      "wants": 5407,
      "five": 5408,
      "中国": 5409,
      "same": 5410,
      "wrong": 5411,
      "bir": 5412,
      "很快": 5413,
      "nothing": 5414,
      "augh": 5415,
      "married": 5416,
      "hn": 5417,
      "你可以": 5418,
      "ia": 5419,
      "法语": 5420,
      "男人": 5421,
      "John": 5422,
      "coffee": 5423,
      "hun": 5424,
      "land": 5425,
      "mist": 5426,
      "met": 5427,
      "everything": 5428,
      "country": 5429,
      "dream": 5430,
      "ato": 5431,
      "far": 5432,
      "why": 5433,
      "feren": 5434,
      "believe": 5435,
      "member": 5436,
      "本书": 5437,
      "本書": 5438,
      "的话": 5439,
      "給我": 5440,
      "import": 5441,
      "ston": 5442,
      "hur": 5443,
      "tri": 5444,
      "你要": 5445,
      "爸爸": 5446,
      "还是": 5447,
      "inter": 5448,
      "vie": 5449,
      "也不": 5450,
      "父親": 5451,
      "ater": 5452,
      "我们的": 5453,
      "while": 5454,
      "fami": 5455,
      "lar": 5456,
      "做的": 5457,
      "想要": 5458,
      "done": 5459,
      "mind": 5460,
      "城市": 5461,
      "是我": 5462,
      "king": 5463,
      "lt": 5464,
      "他不": 5465,
      "我們的": 5466,
      "Boston": 5467,
      "cess": 5468,
      "son": 5469,
      "ples": 5470,
      "place": 5471,
      "fraid": 5472,
      "doctor": 5473,
      "漂亮": 5474,
      "那個": 5475,
      "Would": 5476,
      "afraid": 5477,
      "sup": 5478,
      "twe": 5479,
      "table": 5480,
      "学生": 5481,
      "很有": 5482,
      "我能": 5483,
      "波士": 5484,
      "pret": 5485,
      "diffic": 5486,
      "ces": 5487,
      "一点": 5488,
      "在家": 5489,
      "heard": 5490,
      "什么时候": 5491,
      "人的": 5492,
      "有很多": 5493,
      "being": 5494,
      "true": 5495,
      "wanted": 5496,
      "只是": 5497,
      "發生": 5498,
      "看到": 5499,
      "break": 5500,
      "pain": 5501,
      "来了": 5502,
      "死了": 5503,
      "matter": 5504,
      "ago": 5505,
      "cap": 5506,
      "ited": 5507,
      "alth": 5508,
      "cident": 5509,
      "iz": 5510,
      "必須": 5511,
      "enough": 5512,
      "wasn": 5513,
      "coming": 5514,
      "city": 5515,
      "kill": 5516,
      "这么": 5517,
      "As": 5518,
      "bab": 5519,
      "cy": 5520,
      "io": 5521,
      "vor": 5522,
      "上了": 5523,
      "容易": 5524,
      "tho": 5525,
      "road": 5526,
      "looking": 5527,
      "easy": 5528,
      "大家": 5529,
      "她是": 5530,
      "完全": 5531,
      "感到": 5532,
      "我把": 5533,
      "走了": 5534,
      "hope": 5535,
      "ps": 5536,
      "paren": 5537,
      "smo": 5538,
      "我去": 5539,
      "男孩": 5540,
      "once": 5541,
      "les": 5542,
      "mus": 5543,
      "wind": 5544,
      "我也": 5545,
      "ages": 5546,
      "answer": 5547,
      "flow": 5548,
      "finished": 5549,
      "students": 5550,
      "important": 5551,
      "cook": 5552,
      "fish": 5553,
      "tall": 5554,
      "一點": 5555,
      "為什麼": 5556,
      "ince": 5557,
      "eating": 5558,
      "10": 5559,
      "war": 5560,
      "她在": 5561,
      "ell": 5562,
      "学校": 5563,
      "我希望": 5564,
      "的是": 5565,
      "lice": 5566,
      "looks": 5567,
      "called": 5568,
      "din": 5569,
      "la": 5570,
      "一定": 5571,
      "haven": 5572,
      "Go": 5573,
      "ub": 5574,
      "女孩": 5575,
      "我觉得": 5576,
      "head": 5577,
      "汤姆和": 5578,
      "parents": 5579,
      "Could": 5580,
      "Our": 5581,
      "cr": 5582,
      "men": 5583,
      "tre": 5584,
      "一些": 5585,
      "成功": 5586,
      "晚上": 5587,
      "这些": 5588,
      "iness": 5589,
      "cont": 5590,
      "sible": 5591,
      "differen": 5592,
      "pres": 5593,
      "之前": 5594,
      "了他": 5595,
      "我可以": 5596,
      "認為": 5597,
      "vers": 5598,
      "weather": 5599,
      "tru": 5600,
      "suc": 5601,
      "clock": 5602,
      "num": 5603,
      "你知道": 5604,
      "十分": 5605,
      "发生": 5606,
      "then": 5607,
      "Does": 5608,
      "such": 5609,
      "China": 5610,
      "music": 5611,
      "大利": 5612,
      "another": 5613,
      "wife": 5614,
      "wear": 5615,
      "small": 5616,
      "Her": 5617,
      "wish": 5618,
      "老师": 5619,
      "衣服": 5620,
      "exam": 5621,
      "19": 5622,
      "free": 5623,
      "hu": 5624,
      "一直": 5625,
      "ition": 5626,
      "tele": 5627,
      "Fr": 5628,
      "ele": 5629,
      "low": 5630,
      "這些": 5631,
      "write": 5632,
      "TV": 5633,
      "eyes": 5634,
      "不好": 5635,
      "我就": 5636,
      "语言": 5637,
      "accident": 5638,
      "aper": 5639,
      "stop": 5640,
      "listen": 5641,
      "Mr": 5642,
      "St": 5643,
      "Un": 5644,
      "ted": 5645,
      "uter": 5646,
      "不起": 5647,
      "好了": 5648,
      "找到": 5649,
      "父母": 5650,
      "在哪里": 5651,
      "family": 5652,
      "remember": 5653,
      "station": 5654,
      "apple": 5655,
      "pict": 5656,
      "Sun": 5657,
      "Yes": 5658,
      "ba": 5659,
      "cus": 5660,
      "房间": 5661,
      "key": 5662,
      "high": 5663,
      "comes": 5664,
      "studying": 5665,
      "fire": 5666,
      "ger": 5667,
      "sit": 5668,
      "總是": 5669,
      "美国": 5670,
      "ction": 5671,
      "他有": 5672,
      "公司": 5673,
      "在那": 5674,
      "我喜欢": 5675,
      "lives": 5676,
      "til": 5677,
      "couldn": 5678,
      "因為": 5679,
      "學生": 5680,
      "almost": 5681,
      "point": 5682,
      "qui": 5683,
      "Sami": 5684,
      "fun": 5685,
      "knew": 5686,
      "nis": 5687,
      "sha": 5688,
      "sorry": 5689,
      "上的": 5690,
      "努力": 5691,
      "父亲": 5692,
      "cond": 5693,
      "pped": 5694,
      "which": 5695,
      "Will": 5696,
      "完成": 5697,
      "昨晚": 5698,
      "ason": 5699,
      "alone": 5700,
      "also": 5701,
      "computer": 5702,
      "happened": 5703,
      "hours": 5704,
      "those": 5705,
      "20": 5706,
      "snow": 5707,
      "了我的": 5708,
      "icy": 5709,
      "few": 5710,
      "anyone": 5711,
      "anger": 5712,
      "turned": 5713,
      "difficult": 5714,
      "lun": 5715,
      "了我": 5716,
      "睡觉": 5717,
      "ings": 5718,
      "early": 5719,
      "woman": 5720,
      "了他的": 5721,
      "我喜歡": 5722,
      "apples": 5723,
      "idea": 5724,
      "born": 5725,
      "ily": 5726,
      "先生": 5727,
      "英文": 5728,
      "tow": 5729,
      "coll": 5730,
      "party": 5731,
      "wh": 5732,
      "得很": 5733,
      "自行": 5734,
      "hes": 5735,
      "forget": 5736,
      "near": 5737,
      "Whi": 5738,
      "ali": 5739,
      "gard": 5740,
      "led": 5741,
      "这样": 5742,
      "stre": 5743,
      "form": 5744,
      "uni": 5745,
      "until": 5746,
      "yourself": 5747,
      "不到": 5748,
      "做什么": 5749,
      "吃了": 5750,
      "的話": 5751,
      "這麼": 5752,
      "anim": 5753,
      "trave": 5754,
      "comm": 5755,
      "both": 5756,
      "working": 5757,
      "says": 5758,
      "告诉我": 5759,
      "ched": 5760,
      "pri": 5761,
      "app": 5762,
      "number": 5763,
      "出去": 5764,
      "无法": 5765,
      "火车": 5766,
      "ised": 5767,
      "ote": 5768,
      "goes": 5769,
      "Thank": 5770,
      "多久": 5771,
      "让我": 5772,
      "betwe": 5773,
      "lic": 5774,
      "我不想": 5775,
      "seems": 5776,
      "died": 5777,
      "汤姆和玛丽": 5778,
      "between": 5779,
      "ta": 5780,
      "女人": 5781,
      "是什么": 5782,
      "说话": 5783,
      "還是": 5784,
      "att": 5785,
      "fell": 5786,
      "plain": 5787,
      "favor": 5788,
      "tennis": 5789,
      "six": 5790,
      "av": 5791,
      "pay": 5792,
      "park": 5793,
      "最近": 5794,
      "火車": 5795,
      "ates": 5796,
      "gone": 5797,
      "ith": 5798,
      "ike": 5799,
      "shi": 5800,
      "一切": 5801,
      "他把": 5802,
      "你看": 5803,
      "學校": 5804,
      "我今天": 5805,
      "旅行": 5806,
      "pretty": 5807,
      "30": 5808,
      "Ger": 5809,
      "ew": 5810,
      "mas": 5811,
      "这儿": 5812,
      "These": 5813,
      "pect": 5814,
      "joy": 5815,
      "company": 5816,
      "所有的": 5817,
      "meeting": 5818,
      "fer": 5819,
      "rough": 5820,
      "回答": 5821,
      "明白": 5822,
      "說話": 5823,
      "oud": 5824,
      "top": 5825,
      "log": 5826,
      "noon": 5827,
      "我不能": 5828,
      "sum": 5829,
      "playing": 5830,
      "den": 5831,
      "sen": 5832,
      "不想": 5833,
      "回來": 5834,
      "回来": 5835,
      "tory": 5836,
      "ared": 5837,
      "adv": 5838,
      "Tok": 5839,
      "possible": 5840,
      "ced": 5841,
      "如何": 5842,
      "您的": 5843,
      "watching": 5844,
      "Tokyo": 5845,
      "Al": 5846,
      "du": 5847,
      "whe": 5848,
      "我没有": 5849,
      "iction": 5850,
      "talking": 5851,
      "waiting": 5852,
      "arrived": 5853,
      "Ken": 5854,
      "On": 5855,
      "妈妈": 5856,
      "电影": 5857,
      "老師": 5858,
      "认识": 5859,
      "health": 5860,
      "tonight": 5861,
      "llow": 5862,
      "comple": 5863,
      "Everyone": 5864,
      "dinner": 5865,
      "ject": 5866,
      "不同": 5867,
      "無法": 5868,
      "lia": 5869,
      "汤姆的": 5870,
      "usually": 5871,
      "tea": 5872,
      "himself": 5873,
      "angry": 5874,
      "someone": 5875,
      "我想要": 5876,
      "Aust": 5877,
      "Sh": 5878,
      "eba": 5879,
      "hor": 5880,
      "mom": 5881,
      "ming": 5882,
      "mil": 5883,
      "wall": 5884,
      "一天": 5885,
      "他很": 5886,
      "我需要": 5887,
      "桌子": 5888,
      "ross": 5889,
      "cept": 5890,
      "agree": 5891,
      "getting": 5892,
      "prom": 5893,
      "wonder": 5894,
      "atoeba": 5895,
      "lunch": 5896,
      "bicy": 5897,
      "sal": 5898,
      "sick": 5899,
      "你会": 5900,
      "我和": 5901,
      "rect": 5902,
      "having": 5903,
      "ics": 5904,
      "Tatoeba": 5905,
      "each": 5906,
      "ju": 5907,
      "might": 5908,
      "nat": 5909,
      "ze": 5910,
      "一样": 5911,
      "打算": 5912,
      "故事": 5913,
      "比我": 5914,
      "这本书": 5915,
      "thir": 5916,
      "ener": 5917,
      "change": 5918,
      "ical": 5919,
      "utes": 5920,
      "interesting": 5921,
      "One": 5922,
      "ob": 5923,
      "在这里": 5924,
      "美國": 5925,
      "認識": 5926,
      "電影": 5927,
      "電視": 5928,
      "decid": 5929,
      "police": 5930,
      "words": 5931,
      "started": 5932,
      "window": 5933,
      "ken": 5934,
      "mine": 5935,
      "年轻": 5936,
      "总是": 5937,
      "新的": 5938,
      "跟我": 5939,
      "toge": 5940,
      "ating": 5941,
      "怎么样": 5942,
      "breakfast": 5943,
      "together": 5944,
      "sun": 5945,
      "去看": 5946,
      "高兴": 5947,
      "become": 5948,
      "homework": 5949,
      "minutes": 5950,
      "cur": 5951,
      "nice": 5952,
      "tried": 5953,
      "哥哥": 5954,
      "小时": 5955,
      "這本書": 5956,
      "set": 5957,
      "movie": 5958,
      "hosp": 5959,
      "trans": 5960,
      "quick": 5961,
      "office": 5962,
      "glass": 5963,
      "aughter": 5964,
      "Which": 5965,
      "decided": 5966,
      "ai": 5967,
      "since": 5968,
      "下午": 5969,
      "今晚": 5970,
      "国家": 5971,
      "天气": 5972,
      "我没": 5973,
      "母親": 5974,
      "inv": 5975,
      "through": 5976,
      "cho": 5977,
      "汤姆说": 5978,
      "myself": 5979,
      "story": 5980,
      "drive": 5981,
      "truth": 5982,
      "bicycle": 5983,
      "cam": 5984,
      "tic": 5985,
      "一樣": 5986,
      "句子": 5987,
      "电视": 5988,
      "附近": 5989,
      "quite": 5990,
      "begin": 5991,
      "At": 5992,
      "pul": 5993,
      "ute": 5994,
      "健康": 5995,
      "只有": 5996,
      "她不": 5997,
      "我沒": 5998,
      "給你": 5999,
      "heart": 6000,
      "river": 6001,
      "tem": 6002,
      "languages": 6003,
      "favorite": 6004,
      ".\"": 6005,
      "ef": 6006,
      "你應該": 6007,
      "去哪": 6008,
      "忘了": 6009,
      "那些": 6010,
      "doll": 6011,
      "sub": 6012,
      "looked": 6013,
      "Chr": 6014,
      "如果你": 6015,
      "large": 6016,
      "flowers": 6017,
      "Austra": 6018,
      "ding": 6019,
      "diction": 6020,
      "出生": 6021,
      "好嗎": 6022,
      "離開": 6023,
      "enjoy": 6024,
      "living": 6025,
      "在哪裡": 6026,
      "hospital": 6027,
      "cour": 6028,
      "ied": 6029,
      "igh": 6030,
      "为了": 6031,
      "奇怪": 6032,
      "弟弟": 6033,
      "語言": 6034,
      "pens": 6035,
      "Pe": 6036,
      "az": 6037,
      "gi": 6038,
      "pan": 6039,
      "两个": 6040,
      "医生": 6041,
      "小時": 6042,
      "是我的": 6043,
      "forgot": 6044,
      "col": 6045,
      "cost": 6046,
      "speaks": 6047,
      "broke": 6048,
      "America": 6049,
      "danger": 6050,
      "fall": 6051,
      "makes": 6052,
      "pian": 6053,
      "win": 6054,
      "下來": 6055,
      "住了": 6056,
      "好像": 6057,
      "帮助": 6058,
      "是誰": 6059,
      "音樂": 6060,
      "lim": 6061,
      "box": 6062,
      "hung": 6063,
      "daughter": 6064,
      "later": 6065,
      "sat": 6066,
      "使用": 6067,
      "兩個": 6068,
      "法語": 6069,
      "的地方": 6070,
      "這樣": 6071,
      "食物": 6072,
      "enti": 6073,
      "afternoon": 6074,
      "guy": 6075,
      "Sunday": 6076,
      "travel": 6077,
      "Australia": 6078,
      "Tell": 6079,
      "nor": 6080,
      "ness": 6081,
      "pat": 6082,
      "press": 6083,
      "ru": 6084,
      "sc": 6085,
      "學習": 6086,
      "离开": 6087,
      "inion": 6088,
      "reason": 6089,
      "没有人": 6090,
      "everyone": 6091,
      "build": 6092,
      "Today": 6093,
      "interested": 6094,
      "birth": 6095,
      "town": 6096,
      "white": 6097,
      "Lon": 6098,
      "song": 6099,
      "以为": 6100,
      "我对": 6101,
      "最好的": 6102,
      "real": 6103,
      "ond": 6104,
      "ste": 6105,
      "short": 6106,
      "fail": 6107,
      "wrote": 6108,
      "others": 6109,
      "serious": 6110,
      "London": 6111,
      "New": 6112,
      "So": 6113,
      "card": 6114,
      "spo": 6115,
      "ures": 6116,
      "打电话": 6117,
      "给你": 6118,
      "起床": 6119,
      "跟你": 6120,
      "这种": 6121,
      "rep": 6122,
      "thes": 6123,
      "eng": 6124,
      "char": 6125,
      "汤姆不": 6126,
      "follow": 6127,
      "longer": 6128,
      "grand": 6129,
      "opinion": 6130,
      "dictionary": 6131,
      "Mo": 6132,
      "aur": 6133,
      "cut": 6134,
      "face": 6135,
      "你會": 6136,
      "小心": 6137,
      "来的": 6138,
      "每个": 6139,
      "照片": 6140,
      "眼睛": 6141,
      "谢谢": 6142,
      "vel": 6143,
      "汤姆在": 6144,
      "plane": 6145,
      "different": 6146,
      "picture": 6147,
      "自行车": 6148,
      "animals": 6149,
      "cup": 6150,
      "cry": 6151,
      "lit": 6152,
      "sound": 6153,
      "sci": 6154,
      "其他": 6155,
      "到你": 6156,
      "同意": 6157,
      "我昨天": 6158,
      "我覺得": 6159,
      "有什么": 6160,
      "lived": 6161,
      "chang": 6162,
      "fect": 6163,
      "business": 6164,
      "clean": 6165,
      "dark": 6166,
      "four": 6167,
      "game": 6168,
      "病了": 6169,
      "萨米": 6170,
      "summer": 6171,
      "Give": 6172,
      "case": 6173,
      "sy": 6174,
      "中文": 6175,
      "做什麼": 6176,
      "她很": 6177,
      "是一個": 6178,
      "appe": 6179,
      "store": 6180,
      "older": 6181,
      "black": 6182,
      "告訴我": 6183,
      "波士顿": 6184,
      "street": 6185,
      "Ex": 6186,
      "Re": 6187,
      "dist": 6188,
      "die": 6189,
      "ual": 6190,
      "不了": 6191,
      "经常": 6192,
      "lea": 6193,
      "loves": 6194,
      "uring": 6195,
      "ended": 6196,
      "earth": 6197,
      "news": 6198,
      "wouldn": 6199,
      "Nobody": 6200,
      "...": 6201,
      "complete": 6202,
      "Come": 6203,
      "Mar": 6204,
      "ile": 6205,
      "兄弟": 6206,
      "妻子": 6207,
      "封信": 6208,
      "得不": 6209,
      "得到": 6210,
      "消息": 6211,
      "真是": 6212,
      "都在": 6213,
      "高興": 6214,
      "ork": 6215,
      "popul": 6216,
      "versity": 6217,
      "aurant": 6218,
      "妹妹": 6219,
      "得很好": 6220,
      "打電話": 6221,
      "發現": 6222,
      "足球": 6223,
      "ations": 6224,
      "eaten": 6225,
      "else": 6226,
      "restaurant": 6227,
      "shoes": 6228,
      "piano": 6229,
      "Af": 6230,
      "ife": 6231,
      "pick": 6232,
      "中的": 6233,
      "動物": 6234,
      "唱歌": 6235,
      "天氣": 6236,
      "得了": 6237,
      "有些": 6238,
      "许多": 6239,
      "買了": 6240,
      "汤姆是": 6241,
      "expens": 6242,
      "000": 6243,
      "visit": 6244,
      "sentence": 6245,
      "mistake": 6246,
      "milk": 6247,
      "Not": 6248,
      "bag": 6249,
      "eight": 6250,
      "休息": 6251,
      "在這裡": 6252,
      "坐在": 6253,
      "常常": 6254,
      "結婚": 6255,
      "肯定": 6256,
      "警察": 6257,
      "那麼": 6258,
      "ont": 6259,
      "era": 6260,
      "secre": 6261,
      "anymore": 6262,
      "dead": 6263,
      "foot": 6264,
      "killed": 6265,
      "garden": 6266,
      "base": 6267,
      "cuse": 6268,
      "gar": 6269,
      "ient": 6270,
      "law": 6271,
      "决定": 6272,
      "決定": 6273,
      "班牙": 6274,
      "西班牙": 6275,
      "rel": 6276,
      "though": 6277,
      "rich": 6278,
      "works": 6279,
      "gram": 6280,
      "evening": 6281,
      "很快就": 6282,
      "capital": 6283,
      "baby": 6284,
      "moment": 6285,
      "hungry": 6286,
      "Even": 6287,
      "Rus": 6288,
      "par": 6289,
      "sim": 6290,
      "二十": 6291,
      "人们": 6292,
      "儿子": 6293,
      "出了": 6294,
      "國家": 6295,
      "对我": 6296,
      "感觉": 6297,
      "抱歉": 6298,
      "睡覺": 6299,
      "讓我們": 6300,
      "fort": 6301,
      "unk": 6302,
      "ountain": 6303,
      "correct": 6304,
      "desk": 6305,
      "bird": 6306,
      "present": 6307,
      "tax": 6308,
      "whether": 6309,
      "hind": 6310,
      "lve": 6311,
      "ped": 6312,
      "sou": 6313,
      "上有": 6314,
      "不可能": 6315,
      "你应该": 6316,
      "发现": 6317,
      "唯一": 6318,
      "害怕": 6319,
      "小孩": 6320,
      "許多": 6321,
      "ouble": 6322,
      "became": 6323,
      "yours": 6324,
      "ceed": 6325,
      "一个人": 6326,
      "catch": 6327,
      "strong": 6328,
      "began": 6329,
      "wearing": 6330,
      "expensive": 6331,
      "Se": 6332,
      "ey": 6333,
      "ither": 6334,
      "swe": 6335,
      "val": 6336,
      "你为什么": 6337,
      "完了": 6338,
      "来说": 6339,
      "每個": 6340,
      "team": 6341,
      "cell": 6342,
      "湯姆在": 6343,
      "什么都": 6344,
      "expect": 6345,
      "foreign": 6346,
      "bring": 6347,
      "hands": 6348,
      "German": 6349,
      "Christ": 6350,
      "cake": 6351,
      "grow": 6352,
      "ned": 6353,
      "ran": 6354,
      "tree": 6355,
      "似乎": 6356,
      "动物": 6357,
      "啤酒": 6358,
      "安全": 6359,
      "幫助": 6360,
      "放在": 6361,
      "看起來": 6362,
      "突然": 6363,
      "结婚": 6364,
      "蛋糕": 6365,
      "见过": 6366,
      "通常": 6367,
      "beer": 6368,
      "felt": 6369,
      "湯姆是": 6370,
      "poor": 6371,
      "ists": 6372,
      "People": 6373,
      "Russi": 6374,
      "Jan": 6375,
      "Many": 6376,
      "cri": 6377,
      "rad": 6378,
      "ward": 6379,
      "下了": 6380,
      "兴趣": 6381,
      "太多": 6382,
      "注意": 6383,
      "生命": 6384,
      "看看": 6385,
      "这件事": 6386,
      "libr": 6387,
      "ters": 6388,
      "ately": 6389,
      "concer": 6390,
      "saying": 6391,
      "flu": 6392,
      "learning": 6393,
      "sense": 6394,
      "quickly": 6395,
      "ail": 6396,
      "fly": 6397,
      "fam": 6398,
      "flo": 6399,
      "ok": 6400,
      "是谁": 6401,
      "牛奶": 6402,
      "电脑": 6403,
      "看起来": 6404,
      "这条": 6405,
      "醫生": 6406,
      "behind": 6407,
      "lies": 6408,
      "ames": 6409,
      "湯姆說": 6410,
      "death": 6411,
      "speaking": 6412,
      "clothes": 6413,
      "fully": 6414,
      "你最好": 6415,
      "camera": 6416,
      "After": 6417,
      "ev": 6418,
      "taking": 6419,
      "uck": 6420,
      "想法": 6421,
      "是一个": 6422,
      "部分": 6423,
      "ash": 6424,
      "kept": 6425,
      "wash": 6426,
      "abroad": 6427,
      "什麼時候": 6428,
      "clear": 6429,
      "Bob": 6430,
      "hurt": 6431,
      "Take": 6432,
      "slow": 6433,
      "。」": 6434,
      "一名": 6435,
      "他说": 6436,
      "准备": 6437,
      "夏天": 6438,
      "她把": 6439,
      "媽媽": 6440,
      "我對": 6441,
      "我從": 6442,
      "我已經": 6443,
      "是在": 6444,
      "母亲": 6445,
      "那件事": 6446,
      "half": 6447,
      "along": 6448,
      "hate": 6449,
      "Everybody": 6450,
      "success": 6451,
      "library": 6452,
      "Br": 6453,
      "For": 6454,
      "mach": 6455,
      "下来": 6456,
      "事情": 6457,
      "年輕": 6458,
      "幸福": 6459,
      "成了": 6460,
      "要去": 6461,
      "除了": 6462,
      "vered": 6463,
      "rope": 6464,
      "teach": 6465,
      "我不喜欢": 6466,
      "blue": 6467,
      "cial": 6468,
      "波士頓": 6469,
      "band": 6470,
      "kid": 6471,
      "laugh": 6472,
      "sed": 6473,
      "帽子": 6474,
      "成為": 6475,
      "我认为": 6476,
      "生日": 6477,
      "那裡": 6478,
      "音乐": 6479,
      "second": 6480,
      "uncle": 6481,
      "covered": 6482,
      "exper": 6483,
      "close": 6484,
      "rather": 6485,
      "vision": 6486,
      "dangerous": 6487,
      "Christmas": 6488,
      "bath": 6489,
      "ore": 6490,
      "pho": 6491,
      "vi": 6492,
      "wine": 6493,
      "zy": 6494,
      "买了": 6495,
      "去年": 6496,
      "和你": 6497,
      "我从": 6498,
      "的一": 6499,
      "苹果": 6500,
      "计划": 6501,
      "ries": 6502,
      "ends": 6503,
      "pping": 6504,
      "stopped": 6505,
      "shouldn": 6506,
      "against": 6507,
      "raining": 6508,
      "的事情": 6509,
      "strange": 6510,
      "surpr": 6511,
      "secret": 6512,
      "baseball": 6513,
      "Span": 6514,
      "line": 6515,
      "main": 6516,
      "making": 6517,
      "mountain": 6518,
      "tou": 6519,
      "takes": 6520,
      "wit": 6521,
      "保持": 6522,
      "把它": 6523,
      "散步": 6524,
      "更多": 6525,
      "棒球": 6526,
      "生气": 6527,
      "第一次": 6528,
      "讓我": 6529,
      "ison": 6530,
      "ences": 6531,
      "order": 6532,
      "accept": 6533,
      "known": 6534,
      "front": 6535,
      "世界上": 6536,
      "每天都": 6537,
      "American": 6538,
      "famous": 6539,
      "fre": 6540,
      "上學": 6541,
      "他会": 6542,
      "大学": 6543,
      "幾乎": 6544,
      "我都": 6545,
      "担心": 6546,
      "worth": 6547,
      "湯姆的": 6548,
      "sold": 6549,
      "luck": 6550,
      "smoking": 6551,
      "bank": 6552,
      "len": 6553,
      "ove": 6554,
      "pie": 6555,
      "ses": 6556,
      "une": 6557,
      "了一個": 6558,
      "字典": 6559,
      "我還": 6560,
      "接受": 6561,
      "早餐": 6562,
      "lla": 6563,
      "ush": 6564,
      "hasn": 6565,
      "conf": 6566,
      "cons": 6567,
      "needs": 6568,
      "caught": 6569,
      "swimming": 6570,
      "succeed": 6571,
      "colle": 6572,
      "dollars": 6573,
      "birthday": 6574,
      "chair": 6575,
      "clim": 6576,
      "je": 6577,
      "事故": 6578,
      "到底": 6579,
      "地球": 6580,
      "我正在": 6581,
      "有点": 6582,
      "永远": 6583,
      "法国": 6584,
      "請你": 6585,
      "reg": 6586,
      "ities": 6587,
      "cked": 6588,
      "whole": 6589,
      "mistakes": 6590,
      "漂亮的": 6591,
      "France": 6592,
      "Spanish": 6593,
      "But": 6594,
      "他會": 6595,
      "我爱": 6596,
      "我已经": 6597,
      "整天": 6598,
      "清楚": 6599,
      "老人": 6600,
      "飞机": 6601,
      "arm": 6602,
      "velo": 6603,
      "neigh": 6604,
      "worry": 6605,
      "aged": 6606,
      "upid": 6607,
      "我不是": 6608,
      "thinking": 6609,
      "tention": 6610,
      "finish": 6611,
      "passed": 6612,
      "telephone": 6613,
      "Stop": 6614,
      "With": 6615,
      "bar": 6616,
      "ca": 6617,
      "ech": 6618,
      "sad": 6619,
      "三十": 6620,
      "不多": 6621,
      "之一": 6622,
      "了很多": 6623,
      "你為什麼": 6624,
      "听到": 6625,
      "建议": 6626,
      "我沒有": 6627,
      "有多": 6628,
      "永遠": 6629,
      "理解": 6630,
      "計劃": 6631,
      "错误": 6632,
      "ident": 6633,
      "trust": 6634,
      "他们的": 6635,
      "thank": 6636,
      "writing": 6637,
      "Jane": 6638,
      "bot": 6639,
      "egg": 6640,
      "上班": 6641,
      "加拿": 6642,
      "开心": 6643,
      "必要": 6644,
      "的首": 6645,
      "的東西": 6646,
      "让我们": 6647,
      "adm": 6648,
      "move": 6649,
      "trouble": 6650,
      "我不会": 6651,
      "studies": 6652,
      "umbre": 6653,
      "spent": 6654,
      "played": 6655,
      "Canad": 6656,
      "mail": 6657,
      "smoke": 6658,
      "God": 6659,
      "advice": 6660,
      "thirty": 6661,
      "radio": 6662,
      "umbrella": 6663,
      "Mon": 6664,
      "cal": 6665,
      "fine": 6666,
      "hon": 6667,
      "plo": 6668,
      "test": 6669,
      "主意": 6670,
      "很难": 6671,
      "我來": 6672,
      "我明天": 6673,
      "澳大利": 6674,
      "ins": 6675,
      "ton": 6676,
      "ature": 6677,
      "stupid": 6678,
      "history": 6679,
      "gets": 6680,
      "sky": 6681,
      "building": 6682,
      "Look": 6683,
      "Par": 6684,
      "fac": 6685,
      "paper": 6686,
      "vac": 6687,
      "了一个": 6688,
      "人生": 6689,
      "你去": 6690,
      "你说": 6691,
      "來的": 6692,
      "冬天": 6693,
      "在這": 6694,
      "我家": 6695,
      "是個": 6696,
      "有趣": 6697,
      "recent": 6698,
      "seven": 6699,
      "ants": 6700,
      "outside": 6701,
      "我们在": 6702,
      "dec": 6703,
      "不是嗎": 6704,
      "brought": 6705,
      "glad": 6706,
      "trip": 6707,
      "floor": 6708,
      "Eu": 6709,
      "OK": 6710,
      "dro": 6711,
      "fut": 6712,
      "fil": 6713,
      "kit": 6714,
      "winter": 6715,
      "」「": 6716,
      "了解": 6717,
      "你喜欢": 6718,
      "你今天": 6719,
      "和我": 6720,
      "年前": 6721,
      "我叫": 6722,
      "的东西": 6723,
      "約翰": 6724,
      "網球": 6725,
      "约翰": 6726,
      "那样": 6727,
      "outh": 6728,
      "resu": 6729,
      "asleep": 6730,
      "leg": 6731,
      "across": 6732,
      "moon": 6733,
      "helped": 6734,
      "drunk": 6735,
      "他是个": 6736,
      "prefer": 6737,
      "Ann": 6738,
      "hotel": 6739,
      "questions": 6740,
      "quiet": 6741,
      "taxi": 6742,
      "future": 6743,
      "Put": 6744,
      "York": 6745,
      "ded": 6746,
      "during": 6747,
      "pur": 6748,
      "值得": 6749,
      "只要": 6750,
      "是不": 6751,
      "瑪莉": 6752,
      "真相": 6753,
      "给他": 6754,
      "过了": 6755,
      "那里": 6756,
      "都很": 6757,
      "ats": 6758,
      "pleas": 6759,
      "pose": 6760,
      "sugg": 6761,
      "他們的": 6762,
      "problems": 6763,
      "written": 6764,
      "horse": 6765,
      "50": 6766,
      "Sorry": 6767,
      "lay": 6768,
      "ol": 6769,
      "sign": 6770,
      "uit": 6771,
      "一位": 6772,
      "上去": 6773,
      "他說": 6774,
      "你怎么": 6775,
      "來了": 6776,
      "兒子": 6777,
      "公室": 6778,
      "参加": 6779,
      "最后": 6780,
      "网球": 6781,
      "美元": 6782,
      "虽然": 6783,
      "路上": 6784,
      "電腦": 6785,
      "heav": 6786,
      "means": 6787,
      "lied": 6788,
      "我的手": 6789,
      "喜歡的": 6790,
      "market": 6791,
      "你想要": 6792,
      "easily": 6793,
      "medic": 6794,
      "sleeping": 6795,
      "human": 6796,
      "Excuse": 6797,
      "completely": 6798,
      "Now": 6799,
      "hit": 6800,
      "hus": 6801,
      "sme": 6802,
      "個月": 6803,
      "幫我": 6804,
      "年了": 6805,
      "東京": 6806,
      "翻译": 6807,
      "聽到": 6808,
      "興趣": 6809,
      "英國": 6810,
      "葡萄": 6811,
      "裙子": 6812,
      "過了": 6813,
      "飛機": 6814,
      "address": 6815,
      "tee": 6816,
      "solu": 6817,
      "我不喜歡": 6818,
      "explain": 6819,
      "沒有人": 6820,
      "itting": 6821,
      "我一直": 6822,
      "日本人": 6823,
      "feeling": 6824,
      "count": 6825,
      "fied": 6826,
      "view": 6827,
      "television": 6828,
      "Yesterday": 6829,
      "加拿大": 6830,
      "husband": 6831,
      "Ar": 6832,
      "Bill": 6833,
      "gn": 6834,
      "ny": 6835,
      "oc": 6836,
      "wood": 6837,
      "下一": 6838,
      "不太": 6839,
      "今年": 6840,
      "十二": 6841,
      "叔叔": 6842,
      "意大利": 6843,
      "感兴趣": 6844,
      "我認為": 6845,
      "掉了": 6846,
      "汽车": 6847,
      "return": 6848,
      "tive": 6849,
      "我們在": 6850,
      "aken": 6851,
      "tood": 6852,
      "ousand": 6853,
      "sport": 6854,
      "discus": 6855,
      "cats": 6856,
      "任何人": 6857,
      "university": 6858,
      "ticket": 6859,
      "changed": 6860,
      "photo": 6861,
      "Europe": 6862,
      "Oh": 6863,
      "bike": 6864,
      "cil": 6865,
      "fas": 6866,
      "mag": 6867,
      "关于": 6868,
      "原因": 6869,
      "女朋友": 6870,
      "成为": 6871,
      "我爸爸": 6872,
      "方法": 6873,
      "派對": 6874,
      "看見": 6875,
      "聪明": 6876,
      "讨厌": 6877,
      "记得": 6878,
      "请问": 6879,
      "走路": 6880,
      "还没": 6881,
      "钥匙": 6882,
      "chance": 6883,
      "ider": 6884,
      "moved": 6885,
      "hold": 6886,
      "novel": 6887,
      "studied": 6888,
      "pring": 6889,
      "grad": 6890,
      "girlfriend": 6891,
      "United": 6892,
      "bas": 6893,
      "cu": 6894,
      "cast": 6895,
      "ling": 6896,
      "一家": 6897,
      "不懂": 6898,
      "习惯": 6899,
      "你就": 6900,
      "參加": 6901,
      "存在": 6902,
      "給了": 6903,
      "鋼琴": 6904,
      "湯姆和": 6905,
      "dep": 6906,
      "sometimes": 6907,
      "spect": 6908,
      "speech": 6909,
      "qual": 6910,
      "affic": 6911,
      "pencil": 6912,
      "running": 6913,
      "women": 6914,
      "bably": 6915,
      "color": 6916,
      "touch": 6917,
      "smell": 6918,
      "Good": 6919,
      "bs": 6920,
      "hid": 6921,
      "pot": 6922,
      "send": 6923,
      "tle": 6924,
      "vies": 6925,
      "yen": 6926,
      "不管": 6927,
      "东京": 6928,
      "也沒有": 6929,
      "了什么": 6930,
      "他被": 6931,
      "会议": 6932,
      "你不能": 6933,
      "公园": 6934,
      "关系": 6935,
      "几个": 6936,
      "国人": 6937,
      "就像": 6938,
      "考试": 6939,
      "这不是": 6940,
      "allow": 6941,
      "weight": 6942,
      "movies": 6943,
      "herself": 6944,
      "ions": 6945,
      "certain": 6946,
      "contin": 6947,
      "不好意思": 6948,
      "guys": 6949,
      "Get": 6950,
      "Ke": 6951,
      "Kyo": 6952,
      "gy": 6953,
      "ience": 6954,
      "pon": 6955,
      "rid": 6956,
      "ug": 6957,
      "一般": 6958,
      "不用": 6959,
      "了什麼": 6960,
      "感冒": 6961,
      "来自": 6962,
      "没人": 6963,
      "準備": 6964,
      "玩笑": 6965,
      "第二": 6966,
      "答案": 6967,
      "要是": 6968,
      "那樣": 6969,
      "ann": 6970,
      "enter": 6971,
      "ower": 6972,
      "deep": 6973,
      "post": 6974,
      "fair": 6975,
      "probably": 6976,
      "trying": 6977,
      "green": 6978,
      "listening": 6979,
      "16": 6980,
      "dred": 6981,
      "fight": 6982,
      "ki": 6983,
      "上学": 6984,
      "会说": 6985,
      "到他": 6986,
      "商店": 6987,
      "姐姐": 6988,
      "我有一": 6989,
      "方式": 6990,
      "真正": 6991,
      "确定": 6992,
      "要做": 6993,
      "說英語": 6994,
      "首歌": 6995,
      "马上": 6996,
      "ene": 6997,
      "orrow": 6998,
      "sell": 6999,
      "lying": 7000,
      "lose": 7001,
      "loved": 7002,
      "iling": 7003,
      "seem": 7004,
      "newsp": 7005,
      "cious": 7006,
      "drinking": 7007,
      "arrive": 7008,
      "juice": 7009,
      "glasses": 7010,
      "每个人都": 7011,
      "Kyoto": 7012,
      "Life": 7013,
      "Mike": 7014,
      "Tai": 7015,
      "ao": 7016,
      "chen": 7017,
      "dden": 7018,
      "fill": 7019,
      "fool": 7020,
      "ier": 7021,
      "lend": 7022,
      "mis": 7023,
      "nation": 7024,
      "past": 7025,
      "ror": 7026,
      "round": 7027,
      "你喜歡": 7028,
      "几点": 7029,
      "吃饭": 7030,
      "哪裡": 7031,
      "开车": 7032,
      "很忙": 7033,
      "愿意": 7034,
      "我父親": 7035,
      "把你的": 7036,
      "提供": 7037,
      "擔心": 7038,
      "椅子": 7039,
      "見過": 7040,
      "银行": 7041,
      "開車": 7042,
      "ancy": 7043,
      "itar": 7044,
      "belong": 7045,
      "ots": 7046,
      "aly": 7047,
      "ented": 7048,
      "ural": 7049,
      "uty": 7050,
      "sudden": 7051,
      "ilt": 7052,
      "这个问题": 7053,
      "prof": 7054,
      "careful": 7055,
      "dogs": 7056,
      "sentences": 7057,
      "ublic": 7058,
      "honest": 7059,
      "100": 7060,
      "Just": 7061,
      "Jack": 7062,
      "Kore": 7063,
      "bur": 7064,
      "bread": 7065,
      "cou": 7066,
      "date": 7067,
      "gest": 7068,
      "iri": 7069,
      "rice": 7070,
      "你必须": 7071,
      "你什么时候": 7072,
      "停止": 7073,
      "几乎": 7074,
      "她們": 7075,
      "巴黎": 7076,
      "帮我": 7077,
      "幫忙": 7078,
      "建議": 7079,
      "忘记": 7080,
      "情况": 7081,
      "感覺": 7082,
      "我只": 7083,
      "我该": 7084,
      "才能": 7085,
      "最好": 7086,
      "會議": 7087,
      "简单": 7088,
      "考試": 7089,
      "要求": 7090,
      "讀書": 7091,
      "ones": 7092,
      "lier": 7093,
      "fruit": 7094,
      "deli": 7095,
      "suit": 7096,
      "que": 7097,
      "impossible": 7098,
      "plays": 7099,
      "draw": 7100,
      "Whose": 7101,
      "真的很": 7102,
      "一起去": 7103,
      "多少錢": 7104,
      "hundred": 7105,
      "surprised": 7106,
      "olog": 7107,
      "sof": 7108,
      "京都": 7109,
      "人們": 7110,
      "他不是": 7111,
      "出租": 7112,
      "别人": 7113,
      "女兒": 7114,
      "巴士": 7115,
      "很久": 7116,
      "我跟": 7117,
      "我現在": 7118,
      "我父亲": 7119,
      "日语": 7120,
      "是不是": 7121,
      "有一個": 7122,
      "比賽": 7123,
      "第一": 7124,
      "等了": 7125,
      "自然": 7126,
      "说什么": 7127,
      "身上": 7128,
      "都不": 7129,
      "點鐘": 7130,
      "veget": 7131,
      "sear": 7132,
      "necess": 7133,
      "anybody": 7134,
      "appoint": 7135,
      "worried": 7136,
      "traffic": 7137,
      "ility": 7138,
      "喜欢的": 7139,
      "England": 7140,
      "perfect": 7141,
      "guitar": 7142,
      "girls": 7143,
      "每天早上": 7144,
      "airport": 7145,
      "months": 7146,
      "situ": 7147,
      "commun": 7148,
      "popular": 7149,
      "neighbor": 7150,
      "Paris": 7151,
      "medicine": 7152,
      "ator": 7153,
      "lves": 7154,
      "ring": 7155,
      "sle": 7156,
      "sil": 7157,
      "zed": 7158,
      "下雪": 7159,
      "便宜": 7160,
      "危險": 7161,
      "就會": 7162,
      "很容易": 7163,
      "我得": 7164,
      "收音": 7165,
      "数学": 7166,
      "晚饭": 7167,
      "為了": 7168,
      "生氣": 7169,
      "的书": 7170,
      "簡單": 7171,
      "而是": 7172,
      "认真": 7173,
      "跑得": 7174,
      "雖然": 7175,
      "reco": 7176,
      "thousand": 7177,
      "sea": 7178,
      "kets": 7179,
      "Here": 7180,
      "deal": 7181,
      "polit": 7182,
      "safe": 7183,
      "earlier": 7184,
      "quit": 7185,
      "prove": 7186,
      "broken": 7187,
      "孩子们": 7188,
      "stayed": 7189,
      "星期天": 7190,
      "Because": 7191,
      "missed": 7192,
      "tries": 7193,
      "States": 7194,
      "custo": 7195,
      "leaving": 7196,
      "Russian": 7197,
      "kitchen": 7198,
      "25": 7199,
      "Tho": 7200,
      "cra": 7201,
      "ders": 7202,
      "either": 7203,
      "gan": 7204,
      "vill": 7205,
      "一年": 7206,
      "三个": 7207,
      "以為": 7208,
      "伦敦": 7209,
      "公車": 7210,
      "即使": 7211,
      "哪里": 7212,
      "图书": 7213,
      "失败": 7214,
      "很大": 7215,
      "的吗": 7216,
      "科学": 7217,
      "給他": 7218,
      "能力": 7219,
      "ref": 7220,
      "respect": 7221,
      "meat": 7222,
      "sever": 7223,
      "board": 7224,
      "rent": 7225,
      "stolen": 7226,
      "一個人": 7227,
      "pract": 7228,
      "这是我的": 7229,
      "And": 7230,
      "medi": 7231,
      "younger": 7232,
      "Maybe": 7233,
      "difference": 7234,
      "ship": 7235,
      "native": 7236,
      "patient": 7237,
      "eye": 7238,
      "college": 7239,
      "recently": 7240,
      "Keep": 7241,
      "Those": 7242,
      "gener": 7243,
      "jing": 7244,
      "lcome": 7245,
      "ris": 7246,
      "rang": 7247,
      "sus": 7248,
      "scare": 7249,
      "wed": 7250,
      "丈夫": 7251,
      "不喜欢": 7252,
      "你了": 7253,
      "你做": 7254,
      "你好": 7255,
      "偷了": 7256,
      "听说": 7257,
      "地上": 7258,
      "地址": 7259,
      "大學": 7260,
      "它的": 7261,
      "很少": 7262,
      "忍受": 7263,
      "意外": 7264,
      "我现在": 7265,
      "我昨晚": 7266,
      "是很": 7267,
      "有空": 7268,
      "由于": 7269,
      "的時間": 7270,
      "箱子": 7271,
      "结束": 7272,
      "而且": 7273,
      "記得": 7274,
      "里的": 7275,
      "麻煩": 7276,
      "inform": 7277,
      "returned": 7278,
      "least": 7279,
      "ache": 7280,
      "net": 7281,
      "likely": 7282,
      "develo": 7283,
      "worked": 7284,
      "今天是": 7285,
      "ches": 7286,
      "weekend": 7287,
      "walking": 7288,
      "怎麼樣": 7289,
      "singing": 7290,
      "hurry": 7291,
      "大家都": 7292,
      "promise": 7293,
      "slowly": 7294,
      "consider": 7295,
      "eggs": 7296,
      "Monday": 7297,
      "vacation": 7298,
      "result": 7299,
      "图书馆": 7300,
      "mill": 7301,
      "paid": 7302,
      "vide": 7303,
      "一杯": 7304,
      "不见": 7305,
      "交通": 7306,
      "仍然": 7307,
      "出來": 7308,
      "喝酒": 7309,
      "对不起": 7310,
      "幾個": 7311,
      "成的": 7312,
      "我非常": 7313,
      "政治": 7314,
      "最大的": 7315,
      "會來": 7316,
      "有多少": 7317,
      "的工作": 7318,
      "相機": 7319,
      "解决": 7320,
      "這種": 7321,
      "錯了": 7322,
      "錯誤": 7323,
      "開心": 7324,
      "ination": 7325,
      "inju": 7326,
      "ism": 7327,
      "oose": 7328,
      "terri": 7329,
      "irt": 7330,
      "我的朋友": 7331,
      "produ": 7332,
      "spend": 7333,
      "marry": 7334,
      "posed": 7335,
      "minute": 7336,
      "ized": 7337,
      "shir": 7338,
      "transl": 7339,
      "film": 7340,
      "Ha": 7341,
      "Sat": 7342,
      "avo": 7343,
      "cred": 7344,
      "crow": 7345,
      "ccer": 7346,
      "dou": 7347,
      "fat": 7348,
      "ial": 7349,
      "ko": 7350,
      "ked": 7351,
      "power": 7352,
      "wake": 7353,
      "主义": 7354,
      "他喜歡": 7355,
      "倫敦": 7356,
      "做的事": 7357,
      "別人": 7358,
      "办法": 7359,
      "医院": 7360,
      "危险": 7361,
      "去世": 7362,
      "多了": 7363,
      "差不多": 7364,
      "想知道": 7365,
      "我住在": 7366,
      "是什麼": 7367,
      "有个": 7368,
      "汉语": 7369,
      "沒人": 7370,
      "用的": 7371,
      "的書": 7372,
      "累了": 7373,
      "車站": 7374,
      "这家": 7375,
      "anto": 7376,
      "tong": 7377,
      "ons": 7378,
      "idge": 7379,
      "add": 7380,
      "dered": 7381,
      "complain": 7382,
      "coat": 7383,
      "conom": 7384,
      "carry": 7385,
      "sper": 7386,
      "player": 7387,
      "itted": 7388,
      "blood": 7389,
      "wenty": 7390,
      "actually": 7391,
      "wallet": 7392,
      "charac": 7393,
      "每個人都": 7394,
      "machine": 7395,
      "several": 7396,
      "Esper": 7397,
      "Face": 7398,
      "Le": 7399,
      "hood": 7400,
      "ji": 7401,
      "lin": 7402,
      "nam": 7403,
      "sight": 7404,
      "wan": 7405,
      "他想": 7406,
      "出来": 7407,
      "分钟": 7408,
      "去做": 7409,
      "女儿": 7410,
      "她说": 7411,
      "就要": 7412,
      "我了": 7413,
      "我所": 7414,
      "我無法": 7415,
      "日元": 7416,
      "是你的": 7417,
      "流利": 7418,
      "滿了": 7419,
      "美丽": 7420,
      "這裏": 7421,
      "那儿": 7422,
      "關係": 7423,
      "rece": 7424,
      "stra": 7425,
      "ows": 7426,
      "thinks": 7427,
      "stor": 7428,
      "cks": 7429,
      "closed": 7430,
      "waited": 7431,
      "shop": 7432,
      "shopping": 7433,
      "Bei": 7434,
      "很有趣": 7435,
      "pictures": 7436,
      "Only": 7437,
      "seriously": 7438,
      "Taiwan": 7439,
      "Esperanto": 7440,
      "Facebook": 7441,
      "Chi": 7442,
      "Jim": 7443,
      "Nancy": 7444,
      "dan": 7445,
      "econom": 7446,
      "mid": 7447,
      "pair": 7448,
      "並不": 7449,
      "中國": 7450,
      "了三": 7451,
      "你觉得": 7452,
      "做到": 7453,
      "北京": 7454,
      "哪个": 7455,
      "在这儿": 7456,
      "好好": 7457,
      "得多": 7458,
      "惊讶": 7459,
      "我做": 7460,
      "我被": 7461,
      "我必须": 7462,
      "我完全": 7463,
      "是真的": 7464,
      "生病了": 7465,
      "秘密": 7466,
      "繼續": 7467,
      "習慣": 7468,
      "考虑": 7469,
      "買了一": 7470,
      "运动": 7471,
      "都会": 7472,
      "thor": 7473,
      "llo": 7474,
      "lead": 7475,
      "stem": 7476,
      "idi": 7477,
      "worse": 7478,
      "tric": 7479,
      "ular": 7480,
      "cars": 7481,
      "built": 7482,
      "grap": 7483,
      "Everything": 7484,
      "borrow": 7485,
      "single": 7486,
      "driving": 7487,
      "meaning": 7488,
      "voice": 7489,
      "ize": 7490,
      "salt": 7491,
      "entire": 7492,
      "concert": 7493,
      "Beijing": 7494,
      "By": 7495,
      "Com": 7496,
      "ff": 7497,
      "gen": 7498,
      "ip": 7499,
      "kn": 7500,
      "nine": 7501,
      "public": 7502,
      "个月": 7503,
      "他和": 7504,
      "代表": 7505,
      "你很": 7506,
      "克力": 7507,
      "她有": 7508,
      "家庭": 7509,
      "岁了": 7510,
      "巧克力": 7511,
      "快樂": 7512,
      "意见": 7513,
      "我比": 7514,
      "我聽": 7515,
      "我以前": 7516,
      "战争": 7517,
      "春天": 7518,
      "是的": 7519,
      "的小": 7520,
      "看见": 7521,
      "读书": 7522,
      "辆车": 7523,
      "迟到": 7524,
      "這條": 7525,
      "面包": 7526,
      "鞋子": 7527,
      "inside": 7528,
      "ative": 7529,
      "star": 7530,
      "Tomorrow": 7531,
      "fear": 7532,
      "aka": 7533,
      "boss": 7534,
      "exist": 7535,
      "不是吗": 7536,
      "program": 7537,
      "happiness": 7538,
      "Nothing": 7539,
      "finally": 7540,
      "countries": 7541,
      "check": 7542,
      "visited": 7543,
      "boys": 7544,
      "boyfriend": 7545,
      "showed": 7546,
      "opened": 7547,
      "taller": 7548,
      "Thanks": 7549,
      "course": 7550,
      "failed": 7551,
      "spoke": 7552,
      "crying": 7553,
      "science": 7554,
      "See": 7555,
      "crazy": 7556,
      "village": 7557,
      "18": 7558,
      "Has": 7559,
      "Ro": 7560,
      "ale": 7561,
      "cult": 7562,
      "fact": 7563,
      "ged": 7564,
      "gif": 7565,
      "lake": 7566,
      "mad": 7567,
      "mess": 7568,
      "pet": 7569,
      "rul": 7570,
      "twenty": 7571,
      "一件": 7572,
      "上帝": 7573,
      "份工作": 7574,
      "你說": 7575,
      "你需要": 7576,
      "你真的": 7577,
      "公交": 7578,
      "對的": 7579,
      "左右": 7580,
      "快乐": 7581,
      "我必須": 7582,
      "我以为": 7583,
      "打開": 7584,
      "打網球": 7585,
      "改變": 7586,
      "是用": 7587,
      "比赛": 7588,
      "水果": 7589,
      "無論": 7590,
      "甚至": 7591,
      "的生活": 7592,
      "看了": 7593,
      "看電視": 7594,
      "结果": 7595,
      "继续": 7596,
      "老婆": 7597,
      "醫院": 7598,
      "step": 7599,
      "rol": 7600,
      "ety": 7601,
      "using": 7602,
      "ables": 7603,
      "soccer": 7604,
      "noise": 7605,
      "我不太": 7606,
      "imag": 7607,
      "everybody": 7608,
      "玛丽的": 7609,
      "themat": 7610,
      "在哪儿": 7611,
      "是一种": 7612,
      "walked": 7613,
      "重要的": 7614,
      "collect": 7615,
      "attend": 7616,
      "temper": 7617,
      "subject": 7618,
      "system": 7619,
      "sweet": 7620,
      "piece": 7621,
      "的首都": 7622,
      "gradu": 7623,
      "newspaper": 7624,
      "slept": 7625,
      "information": 7626,
      "Wa": 7627,
      "cation": 7628,
      "det": 7629,
      "lack": 7630,
      "mouth": 7631,
      "non": 7632,
      "sitting": 7633,
      "tal": 7634,
      "不可": 7635,
      "他没有": 7636,
      "作业": 7637,
      "修理": 7638,
      "到家": 7639,
      "回事": 7640,
      "在一起": 7641,
      "好人": 7642,
      "家人": 7643,
      "對不起": 7644,
      "很认真": 7645,
      "怎樣": 7646,
      "我剛": 7647,
      "我无法": 7648,
      "文化": 7649,
      "日語": 7650,
      "明年": 7651,
      "欢迎": 7652,
      "正確": 7653,
      "的那": 7654,
      "礼物": 7655,
      "笑了": 7656,
      "能够": 7657,
      "解释": 7658,
      "謝謝": 7659,
      "seat": 7660,
      "rodu": 7661,
      "apolog": 7662,
      "colate": 7663,
      "immedi": 7664,
      "seeing": 7665,
      "cted": 7666,
      "proud": 7667,
      "甚麼時候": 7668,
      "Someone": 7669,
      "twelve": 7670,
      "satis": 7671,
      "spoken": 7672,
      "grandfather": 7673,
      "situation": 7674,
      "immediately": 7675,
      "Bet": 7676,
      "Call": 7677,
      "Dad": 7678,
      "Father": 7679,
      "Lay": 7680,
      "Last": 7681,
      "cross": 7682,
      "dad": 7683,
      "lad": 7684,
      "phy": 7685,
      "wise": 7686,
      "yell": 7687,
      "不在": 7688,
      "他要": 7689,
      "你昨天": 7690,
      "公園": 7691,
      "印象": 7692,
      "吉他": 7693,
      "名的": 7694,
      "圣诞": 7695,
      "外面": 7696,
      "头发": 7697,
      "她一": 7698,
      "好吗": 7699,
      "忘記": 7700,
      "我更": 7701,
      "我最": 7702,
      "晚餐": 7703,
      "的男人": 7704,
      "直到": 7705,
      "研究": 7706,
      "请你": 7707,
      "起了": 7708,
      "身体": 7709,
      "选择": 7710,
      "部电影": 7711,
      "regre": 7712,
      "report": 7713,
      "attention": 7714,
      "env": 7715,
      "hall": 7716,
      "bey": 7717,
      "beach": 7718,
      "selves": 7719,
      "usual": 7720,
      "peace": 7721,
      "hip": 7722,
      "teen": 7723,
      "absent": 7724,
      "hob": 7725,
      "我不會": 7726,
      "special": 7727,
      "respon": 7728,
      "rown": 7729,
      "我是个": 7730,
      "日本的": 7731,
      "很好的": 7732,
      "math": 7733,
      "guess": 7734,
      "我要去": 7735,
      "smart": 7736,
      "introdu": 7737,
      "driver": 7738,
      "下雨了": 7739,
      "super": 7740,
      "cooking": 7741,
      "fresh": 7742,
      "suggest": 7743,
      "heavy": 7744,
      "teeth": 7745,
      "necessary": 7746,
      "scared": 7747,
      "injured": 7748,
      "doub": 7749,
      "tongue": 7750,
      "Two": 7751,
      "Turn": 7752,
      "Was": 7753,
      "bat": 7754,
      "dam": 7755,
      "gain": 7756,
      "gress": 7757,
      "kiss": 7758,
      "ric": 7759,
      "ues": 7760,
      "一只": 7761,
      "一隻": 7762,
      "上海": 7763,
      "下周": 7764,
      "你一": 7765,
      "你到底": 7766,
      "出发": 7767,
      "分鐘": 7768,
      "利亚": 7769,
      "午飯": 7770,
      "历史": 7771,
      "台灣": 7772,
      "大概": 7773,
      "太陽": 7774,
      "她會": 7775,
      "如此": 7776,
      "完美": 7777,
      "就会": 7778,
      "帮忙": 7779,
      "当时": 7780,
      "想到": 7781,
      "愉快": 7782,
      "我用": 7783,
      "我真的": 7784,
      "我打算": 7785,
      "承认": 7786,
      "把我的": 7787,
      "控制": 7788,
      "收到": 7789,
      "改变": 7790,
      "曾經": 7791,
      "根本": 7792,
      "母语": 7793,
      "看法": 7794,
      "立刻": 7795,
      "聲音": 7796,
      "跳舞": 7797,
      "过去": 7798,
      "這張": 7799,
      "遵守": 7800,
      "都有": 7801,
      "顆蘋果": 7802,
      "thre": 7803,
      "bear": 7804,
      "area": 7805,
      "forward": 7806,
      "waste": 7807,
      "iron": 7808,
      "earn": 7809,
      "project": 7810,
      "這個問題": 7811,
      "forest": 7812,
      "可能会": 7813,
      "cloud": 7814,
      "talked": 7815,
      "多少钱": 7816,
      "flower": 7817,
      "simple": 7818,
      "fluent": 7819,
      "澳大利亚": 7820,
      "purpose": 7821,
      "Satur": 7822,
      "avoid": 7823,
      "15": 7824,
      "Spe": 7825,
      "Tr": 7826,
      "alive": 7827,
      "ctive": 7828,
      "ered": 7829,
      "fif": 7830,
      "nur": 7831,
      "sion": 7832,
      "twi": 7833,
      "tast": 7834,
      "不喜歡": 7835,
      "中心": 7836,
      "之间": 7837,
      "了她": 7838,
      "五十": 7839,
      "他從": 7840,
      "他没": 7841,
      "你也": 7842,
      "你明天": 7843,
      "到達": 7844,
      "午餐": 7845,
      "受到": 7846,
      "大了": 7847,
      "姐妹": 7848,
      "小說": 7849,
      "当然": 7850,
      "很難": 7851,
      "我说": 7852,
      "我还": 7853,
      "我妹妹": 7854,
      "报纸": 7855,
      "抱怨": 7856,
      "最後": 7857,
      "游戏": 7858,
      "舒服": 7859,
      "花園": 7860,
      "解決": 7861,
      "让你": 7862,
      "这张": 7863,
      "钢琴": 7864,
      "错了": 7865,
      "held": 7866,
      "incre": 7867,
      "remain": 7868,
      "ery": 7869,
      "Their": 7870,
      "among": 7871,
      "lock": 7872,
      "Itali": 7873,
      "Italy": 7874,
      "urch": 7875,
      "exact": 7876,
      "不是我的": 7877,
      "price": 7878,
      "ground": 7879,
      "join": 7880,
      "finite": 7881,
      "position": 7882,
      "cording": 7883,
      "shower": 7884,
      "trees": 7885,
      "在那里": 7886,
      "Germany": 7887,
      "Shang": 7888,
      "promised": 7889,
      "Most": 7890,
      "appear": 7891,
      "football": 7892,
      "profess": 7893,
      "soft": 7894,
      "shirt": 7895,
      "storm": 7896,
      "Child": 7897,
      "idiot": 7898,
      "satisfied": 7899,
      "Layla": 7900,
      "Me": 7901,
      "Wor": 7902,
      "ds": 7903,
      "equal": 7904,
      "lved": 7905,
      "mal": 7906,
      "map": 7907,
      "不去": 7908,
      "不錯": 7909,
      "他對": 7910,
      "他喜欢": 7911,
      "你还": 7912,
      "你覺得": 7913,
      "去过": 7914,
      "变得": 7915,
      "味道": 7916,
      "哭了": 7917,
      "喝咖啡": 7918,
      "失敗": 7919,
      "失望": 7920,
      "失去了": 7921,
      "好久": 7922,
      "我每": 7923,
      "我相信": 7924,
      "打开": 7925,
      "明的": 7926,
      "晚飯": 7927,
      "有什麼": 7928,
      "汽車": 7929,
      "的朋友": 7930,
      "的房子": 7931,
      "自由": 7932,
      "花了": 7933,
      "花园": 7934,
      "跑步": 7935,
      "这只": 7936,
      "inno": 7937,
      "orge": 7938,
      "liked": 7939,
      "我们有": 7940,
      "trad": 7941,
      "我們是": 7942,
      "willing": 7943,
      "ards": 7944,
      "prison": 7945,
      "club": 7946,
      "grew": 7947,
      "dishes": 7948,
      "partic": 7949,
      "是一種": 7950,
      "fix": 7951,
      "cream": 7952,
      "emp": 7953,
      "一定是": 7954,
      "chocolate": 7955,
      "distance": 7956,
      "soup": 7957,
      "delicious": 7958,
      "gift": 7959,
      "rules": 7960,
      "Shangha": 7961,
      "Ju": 7962,
      "Os": 7963,
      "Ziri": 7964,
      "aim": 7965,
      "burn": 7966,
      "ived": 7967,
      "jor": 7968,
      "loud": 7969,
      "pup": 7970,
      "rare": 7971,
      "taken": 7972,
      "ying": 7973,
      "zen": 7974,
      "一百": 7975,
      "主要": 7976,
      "你和": 7977,
      "其中": 7978,
      "在我": 7979,
      "地震": 7980,
      "大多": 7981,
      "子的": 7982,
      "并不": 7983,
      "很冷": 7984,
      "德语": 7985,
      "拒绝": 7986,
      "方面": 7987,
      "是你": 7988,
      "样的": 7989,
      "歡迎": 7990,
      "歷史": 7991,
      "滑雪": 7992,
      "為甚麼": 7993,
      "白色的": 7994,
      "的嗎": 7995,
      "的日": 7996,
      "的名字": 7997,
      "行为": 7998,
      "说的": 7999,
      "這隻": 8000,
      "通过": 8001,
      "運動": 8002,
      "里有": 8003,
      "高的": 8004,
      "regard": 8005,
      "aste": 8006,
      "meal": 8007,
      "season": 8008,
      "till": 8009,
      "acket": 8010,
      "ney": 8011,
      "goal": 8012,
      "text": 8013,
      "Were": 8014,
      "depart": 8015,
      "imp": 8016,
      "他们在": 8017,
      "我想去": 8018,
      "今天早上": 8019,
      "Inter": 8020,
      "孩子們": 8021,
      "世界语": 8022,
      "cheap": 8023,
      "ments": 8024,
      "major": 8025,
      "learned": 8026,
      "sisters": 8027,
      "fishing": 8028,
      "example": 8029,
      "nearly": 8030,
      "invited": 8031,
      "enjoyed": 8032,
      "leaves": 8033,
      "Canada": 8034,
      "decis": 8035,
      "sports": 8036,
      "national": 8037,
      "couple": 8038,
      "derstood": 8039,
      "Wait": 8040,
      "twice": 8041,
      "Children": 8042,
      "Ac": 8043,
      "Hur": 8044,
      "Love": 8045,
      "Sm": 8046,
      "ban": 8047,
      "bal": 8048,
      "bill": 8049,
      "cute": 8050,
      "dance": 8051,
      "sn": 8052,
      "vent": 8053,
      "za": 8054,
      "之間": 8055,
      "他从": 8056,
      "他昨天": 8057,
      "以后": 8058,
      "你对": 8059,
      "來說": 8060,
      "加入": 8061,
      "和她": 8062,
      "困难": 8063,
      "在日本": 8064,
      "声音": 8065,
      "天空": 8066,
      "子裡": 8067,
      "年紀": 8068,
      "手机": 8069,
      "打了": 8070,
      "數學": 8071,
      "文章": 8072,
      "是否": 8073,
      "比較": 8074,
      "派对": 8075,
      "满了": 8076,
      "照顧": 8077,
      "照顾": 8078,
      "男朋友": 8079,
      "看來": 8080,
      "穿著": 8081,
      "窗戶": 8082,
      "精神": 8083,
      "聖誕": 8084,
      "號碼": 8085,
      "解釋": 8086,
      "這本": 8087,
      "道歉": 8088,
      "遲到": 8089,
      "颜色": 8090,
      "reali": 8091,
      "stam": 8092,
      "habit": 8093,
      "church": 8094,
      "ties": 8095,
      "washed": 8096,
      "gover": 8097,
      "我们必须": 8098,
      "plac": 8099,
      "sugar": 8100,
      "author": 8101,
      "我想知道": 8102,
      "type": 8103,
      "carefully": 8104,
      "ski": 8105,
      "elec": 8106,
      "Sundays": 8107,
      "keys": 8108,
      "master": 8109,
      "third": 8110,
      "appeared": 8111,
      "population": 8112,
      "对我来说": 8113,
      "kids": 8114,
      "solute": 8115,
      "filled": 8116,
      "suddenly": 8117,
      "出租车": 8118,
      "million": 8119,
      "named": 8120,
      "thematics": 8121,
      "Italian": 8122,
      "11": 8123,
      "Gr": 8124,
      "Po": 8125,
      "War": 8126,
      "bers": 8127,
      "jour": 8128,
      "oper": 8129,
      "pull": 8130,
      "ride": 8131,
      "spring": 8132,
      "vour": 8133,
      "vous": 8134,
      "一条": 8135,
      "三個": 8136,
      "不過": 8137,
      "之后": 8138,
      "你怎麼": 8139,
      "信息": 8140,
      "全部": 8141,
      "四十": 8142,
      "夢想": 8143,
      "它是": 8144,
      "情況": 8145,
      "意見": 8146,
      "感谢": 8147,
      "或者": 8148,
      "无所": 8149,
      "是有": 8150,
      "更好": 8151,
      "机会": 8152,
      "機會": 8153,
      "洗澡": 8154,
      "澳洲": 8155,
      "當時": 8156,
      "素食": 8157,
      "给我一": 8158,
      "考慮": 8159,
      "联系": 8160,
      "行了": 8161,
      "见到": 8162,
      "討論": 8163,
      "进来": 8164,
      "迟到了": 8165,
      "迷路": 8166,
      "requi": 8167,
      "memor": 8168,
      "ham": 8169,
      "ides": 8170,
      "rious": 8171,
      "entist": 8172,
      "汤姆不知道": 8173,
      "gold": 8174,
      "golf": 8175,
      "understood": 8176,
      "ager": 8177,
      "我們不": 8178,
      "我們要": 8179,
      "iled": 8180,
      "ext": 8181,
      "express": 8182,
      "fault": 8183,
      "favour": 8184,
      "tions": 8185,
      "needed": 8186,
      "grou": 8187,
      "joke": 8188,
      "Indi": 8189,
      "有一天": 8190,
      "rains": 8191,
      "brothers": 8192,
      "passport": 8193,
      "Sometimes": 8194,
      "dreams": 8195,
      "是我最": 8196,
      "condition": 8197,
      "Brit": 8198,
      "laughing": 8199,
      "lucky": 8200,
      "Korean": 8201,
      "Hurry": 8202,
      "De": 8203,
      "Ear": 8204,
      "Ge": 8205,
      "Gree": 8206,
      "Hi": 8207,
      "Kate": 8208,
      "Lu": 8209,
      "Mt": 8210,
      "cow": 8211,
      "cand": 8212,
      "gent": 8213,
      "ners": 8214,
      "ost": 8215,
      "ping": 8216,
      "pun": 8217,
      "pond": 8218,
      "vious": 8219,
      "三天": 8220,
      "下次": 8221,
      "了她的": 8222,
      "他了": 8223,
      "他对": 8224,
      "以後": 8225,
      "作家": 8226,
      "你认为": 8227,
      "办公室": 8228,
      "印度": 8229,
      "去過": 8230,
      "吸煙": 8231,
      "和平": 8232,
      "在一": 8233,
      "太阳": 8234,
      "嬰兒": 8235,
      "待在家": 8236,
      "很重要": 8237,
      "我刚": 8238,
      "打网球": 8239,
      "擅長": 8240,
      "教育": 8241,
      "欧洲": 8242,
      "死亡": 8243,
      "法國": 8244,
      "然后": 8245,
      "的地": 8246,
      "的大": 8247,
      "的最": 8248,
      "給我一": 8249,
      "翻譯": 8250,
      "蔬菜": 8251,
      "这就是": 8252,
      "里面": 8253,
      "阿拉": 8254,
      "頭髮": 8255,
      "高中": 8256,
      "intell": 8257,
      "edu": 8258,
      "Hello": 8259,
      "iced": 8260,
      "汤姆会": 8261,
      "unt": 8262,
      "note": 8263,
      "我們有": 8264,
      "plant": 8265,
      "plans": 8266,
      "solve": 8267,
      "common": 8268,
      "impress": 8269,
      "今天下午": 8270,
      "ortun": 8271,
      "不要再": 8272,
      "percent": 8273,
      "telling": 8274,
      "useful": 8275,
      "mates": 8276,
      "所有人都": 8277,
      "smile": 8278,
      "drinks": 8279,
      "Any": 8280,
      "我看见": 8281,
      "mission": 8282,
      "difficul": 8283,
      "painted": 8284,
      "这么做": 8285,
      "control": 8286,
      "自行車": 8287,
      "Although": 8288,
      "healthy": 8289,
      "桌子上": 8290,
      "choice": 8291,
      "汤姆说他": 8292,
      "去哪裡": 8293,
      "stead": 8294,
      "engine": 8295,
      "earthqu": 8296,
      "bottle": 8297,
      "magaz": 8298,
      "knife": 8299,
      "Smith": 8300,
      "60": 8301,
      "CD": 8302,
      "Gre": 8303,
      "bow": 8304,
      "ime": 8305,
      "lone": 8306,
      "mi": 8307,
      "opp": 8308,
      "pes": 8309,
      "。。": 8310,
      "一把": 8311,
      "一本": 8312,
      "上午": 8313,
      "不再": 8314,
      "买了一": 8315,
      "信用": 8316,
      "允许": 8317,
      "再次": 8318,
      "出門": 8319,
      "回来了": 8320,
      "大阪": 8321,
      "失去": 8322,
      "學家": 8323,
      "小的": 8324,
      "床上": 8325,
      "微笑": 8326,
      "您想": 8327,
      "我吃": 8328,
      "我好": 8329,
      "我愛": 8330,
      "我应该": 8331,
      "我最近": 8332,
      "收集": 8333,
      "政府": 8334,
      "是多少": 8335,
      "桌上": 8336,
      "特别": 8337,
      "理由": 8338,
      "的意思": 8339,
      "的女孩": 8340,
      "看电视": 8341,
      "睡了": 8342,
      "紐約": 8343,
      "纽约": 8344,
      "终于": 8345,
      "给我们": 8346,
      "能不能": 8347,
      "讨论": 8348,
      "让他": 8349,
      "过来": 8350,
      "這件": 8351,
      "都會": 8352,
      "都没有": 8353,
      "铅笔": 8354,
      "關於": 8355,
      "remind": 8356,
      "sex": 8357,
      "ford": 8358,
      "ached": 8359,
      "汤姆把": 8360,
      "汤姆是个": 8361,
      "above": 8362,
      "我的名字": 8363,
      "fever": 8364,
      "我们要": 8365,
      "knowled": 8366,
      "poet": 8367,
      "comfor": 8368,
      "explo": 8369,
      "grass": 8370,
      "drank": 8371,
      "blind": 8372,
      "achie": 8373,
      "nervous": 8374,
      "hurts": 8375,
      "support": 8376,
      "房间里": 8377,
      "在那裡": 8378,
      "Alger": 8379,
      "wonderful": 8380,
      "salary": 8381,
      "奇怪的": 8382,
      "given": 8383,
      "grandmother": 8384,
      "birds": 8385,
      "experience": 8386,
      "wedding": 8387,
      "credit": 8388,
      "regret": 8389,
      "doubt": 8390,
      "finitely": 8391,
      "Osaka": 8392,
      "Fu": 8393,
      "Lin": 8394,
      "Su": 8395,
      "Water": 8396,
      "cried": 8397,
      "jum": 8398,
      "na": 8399,
      "nic": 8400,
      "pared": 8401,
      "var": 8402,
      "vic": 8403,
      "不見": 8404,
      "也沒": 8405,
      "也没": 8406,
      "人在": 8407,
      "他用": 8408,
      "令人": 8409,
      "作業": 8410,
      "你必須": 8411,
      "來自": 8412,
      "做完": 8413,
      "做那件事": 8414,
      "取消": 8415,
      "受伤": 8416,
      "吃什么": 8417,
      "回去": 8418,
      "圖書": 8419,
      "它们": 8420,
      "尽管": 8421,
      "年龄": 8422,
      "從來": 8423,
      "德国": 8424,
      "我只是": 8425,
      "教堂": 8426,
      "教授": 8427,
      "是他": 8428,
      "是由": 8429,
      "有沒有": 8430,
      "森林": 8431,
      "犯了": 8432,
      "的故事": 8433,
      "目标": 8434,
      "看我": 8435,
      "等待": 8436,
      "等一下": 8437,
      "糟糕": 8438,
      "给了": 8439,
      "美麗": 8440,
      "耐心": 8441,
      "說謊": 8442,
      "还有": 8443,
      "退休": 8444,
      "醉了": 8445,
      "阿尔": 8446,
      "ines": 8447,
      "recomm": 8448,
      "ances": 8449,
      "toi": 8450,
      "ased": 8451,
      "ordered": 8452,
      "state": 8453,
      "liar": 8454,
      "wealth": 8455,
      "account": 8456,
      "roll": 8457,
      "roof": 8458,
      "汤姆没有": 8459,
      "absolute": 8460,
      "我的房間": 8461,
      "ury": 8462,
      "soci": 8463,
      "excell": 8464,
      "tooth": 8465,
      "cts": 8466,
      "prin": 8467,
      "pron": 8468,
      "他們在": 8469,
      "space": 8470,
      "ideas": 8471,
      "怎么做": 8472,
      "blame": 8473,
      "有一些": 8474,
      "flat": 8475,
      "disappoint": 8476,
      "harder": 8477,
      "weeks": 8478,
      "skirt": 8479,
      "runs": 8480,
      "largest": 8481,
      "很有意思": 8482,
      "treat": 8483,
      "shall": 8484,
      "priv": 8485,
      "apped": 8486,
      "logy": 8487,
      "Should": 8488,
      "natural": 8489,
      "translate": 8490,
      "fortun": 8491,
      "ploy": 8492,
      "葡萄酒": 8493,
      "faster": 8494,
      "vegetables": 8495,
      "communic": 8496,
      "美丽的": 8497,
      "公交车": 8498,
      "phys": 8499,
      "yellow": 8500,
      "Saturday": 8501,
      "govern": 8502,
      "Earth": 8503,
      "George": 8504,
      "信用卡": 8505,
      "圖書館": 8506,
      "Apri": 8507,
      "Happ": 8508,
      "Try": 8509,
      "athe": 8510,
      "cing": 8511,
      "cot": 8512,
      "cket": 8513,
      "dest": 8514,
      "fu": 8515,
      "fro": 8516,
      "fig": 8517,
      "gas": 8518,
      "mand": 8519,
      "mur": 8520,
      "rup": 8521,
      "vio": 8522,
      "wis": 8523,
      "zoo": 8524,
      "一会": 8525,
      "不上": 8526,
      "不过": 8527,
      "事实": 8528,
      "他就": 8529,
      "你家": 8530,
      "你對": 8531,
      "全都": 8532,
      "公共": 8533,
      "到达": 8534,
      "吃飯": 8535,
      "太太": 8536,
      "字母": 8537,
      "将会": 8538,
      "彈鋼琴": 8539,
      "我每天": 8540,
      "打扰": 8541,
      "找到了": 8542,
      "撒谎": 8543,
      "有没有": 8544,
      "期待": 8545,
      "機場": 8546,
      "比较": 8547,
      "法律": 8548,
      "点儿": 8549,
      "生意": 8550,
      "留下": 8551,
      "的路上": 8552,
      "看上去": 8553,
      "確定": 8554,
      "禁止": 8555,
      "經常": 8556,
      "经济": 8557,
      "聰明": 8558,
      "讓他": 8559,
      "跟他": 8560,
      "辦法": 8561,
      "遇到": 8562,
      "遇到了": 8563,
      "選擇": 8564,
      "酒店": 8565,
      "钱包": 8566,
      "长时间": 8567,
      "願意": 8568,
      "馬上": 8569,
      "repe": 8570,
      "island": 8571,
      "stant": 8572,
      "weren": 8573,
      "ushed": 8574,
      "我们应该": 8575,
      "apart": 8576,
      "知道的": 8577,
      "definitely": 8578,
      "ears": 8579,
      "somewhere": 8580,
      "except": 8581,
      "不是很": 8582,
      "ima": 8583,
      "progress": 8584,
      "eats": 8585,
      "prot": 8586,
      "今天的": 8587,
      "ument": 8588,
      "可能會": 8589,
      "bridge": 8590,
      "他是個": 8591,
      "lately": 8592,
      "discovered": 8593,
      "hardly": 8594,
      "planning": 8595,
      "cated": 8596,
      "cheese": 8597,
      "breath": 8598,
      "singer": 8599,
      "一定要": 8600,
      "发生了什么": 8601,
      "197": 8602,
      "完成了": 8603,
      "beginning": 8604,
      "湯姆和瑪麗": 8605,
      "potato": 8606,
      "lady": 8607,
      "hobby": 8608,
      "nurse": 8609,
      "favourite": 8610,
      "Greek": 8611,
      "comfortable": 8612,
      "toilet": 8613,
      "excellent": 8614,
      "April": 8615,
      "200": 8616,
      "Har": 8617,
      "Hok": 8618,
      "Man": 8619,
      "Mother": 8620,
      "Of": 8621,
      "Open": 8622,
      "auty": 8623,
      "cas": 8624,
      "dum": 8625,
      "gun": 8626,
      "games": 8627,
      "ire": 8628,
      "jud": 8629,
      "kaid": 8630,
      "piz": 8631,
      "sl": 8632,
      "tur": 8633,
      "vid": 8634,
      "ware": 8635,
      "yle": 8636,
      "一遍": 8637,
      "严重": 8638,
      "之後": 8639,
      "他也": 8640,
      "你把": 8641,
      "其實": 8642,
      "再見": 8643,
      "出门": 8644,
      "分之": 8645,
      "功課": 8646,
      "北海": 8647,
      "去学校": 8648,
      "反對": 8649,
      "可爱": 8650,
      "号码": 8651,
      "和他": 8652,
      "喝了": 8653,
      "在这": 8654,
      "在这个": 8655,
      "坏了": 8656,
      "处理": 8657,
      "寫的": 8658,
      "小说": 8659,
      "就能": 8660,
      "快要": 8661,
      "恐怕": 8662,
      "想去": 8663,
      "意义": 8664,
      "慢慢": 8665,
      "我听": 8666,
      "我才": 8667,
      "我弟弟": 8668,
      "找不到": 8669,
      "放棄": 8670,
      "旁边": 8671,
      "普通": 8672,
      "曾经": 8673,
      "有點": 8674,
      "有一个": 8675,
      "歌手": 8676,
      "点半": 8677,
      "獨自": 8678,
      "玩具": 8679,
      "的好": 8680,
      "目前": 8681,
      "禮物": 8682,
      "系统": 8683,
      "英国": 8684,
      "行李": 8685,
      "说法语": 8686,
      "這輛": 8687,
      "還沒": 8688,
      "鑰匙": 8689,
      "鸡蛋": 8690,
      "orange": 8691,
      "stri": 8692,
      "ays": 8693,
      "beha": 8694,
      "tie": 8695,
      "tiv": 8696,
      "neither": 8697,
      "汤姆很": 8698,
      "汤姆有": 8699,
      "他的名字": 8700,
      "extre": 8701,
      "butter": 8702,
      "speaker": 8703,
      "dern": 8704,
      "woke": 8705,
      "watched": 8706,
      "可能是": 8707,
      "昨天我": 8708,
      "非常好": 8709,
      "cient": 8710,
      "在哪兒": 8711,
      "我很抱歉": 8712,
      "Both": 8713,
      "stru": 8714,
      "星期一": 8715,
      "classmates": 8716,
      "letters": 8717,
      "keeps": 8718,
      "missing": 8719,
      "writes": 8720,
      "lights": 8721,
      "電話號碼": 8722,
      "我把我的": 8723,
      "warm": 8724,
      "attack": 8725,
      "一切都": 8726,
      "tickets": 8727,
      "去哪儿": 8728,
      "ential": 8729,
      "rude": 8730,
      "cards": 8731,
      "有些人": 8732,
      "加拿大人": 8733,
      "Arab": 8734,
      "basket": 8735,
      "enemy": 8736,
      "recogn": 8737,
      "去世了": 8738,
      "batter": 8739,
      "exactly": 8740,
      "innocent": 8741,
      "empty": 8742,
      "阿拉伯": 8743,
      "education": 8744,
      "lonely": 8745,
      "Hokkaid": 8746,
      "北海道": 8747,
      "Hokkaido": 8748,
      "12": 8749,
      "Rome": 8750,
      "Since": 8751,
      "cities": 8752,
      "dle": 8753,
      "fle": 8754,
      "none": 8755,
      "rate": 8756,
      "sli": 8757,
      "tu": 8758,
      "whis": 8759,
      "wound": 8760,
      "不久": 8761,
      "不错": 8762,
      "人类": 8763,
      "介意": 8764,
      "介紹": 8765,
      "他正在": 8766,
      "你吃": 8767,
      "你该": 8768,
      "俄罗": 8769,
      "傷害": 8770,
      "午饭": 8771,
      "厨房": 8772,
      "反对": 8773,
      "另一": 8774,
      "只能": 8775,
      "可怕": 8776,
      "呼吸": 8777,
      "噪音": 8778,
      "多的": 8779,
      "她說": 8780,
      "对的": 8781,
      "干什么": 8782,
      "很高": 8783,
      "得好": 8784,
      "心情": 8785,
      "怀疑": 8786,
      "您有": 8787,
      "想的": 8788,
      "我为": 8789,
      "我就是": 8790,
      "我哥哥": 8791,
      "我感觉": 8792,
      "满意": 8793,
      "玫瑰": 8794,
      "痛苦": 8795,
      "看着": 8796,
      "至少": 8797,
      "表示": 8798,
      "证明": 8799,
      "试图": 8800,
      "说了": 8801,
      "辦公室": 8802,
      "這家": 8803,
      "長大": 8804,
      "阅读": 8805,
      "阻止": 8806,
      "駕駛": 8807,
      "麻烦": 8808,
      "reli": 8809,
      "recor": 8810,
      "rela": 8811,
      "ises": 8812,
      "toy": 8813,
      "arp": 8814,
      "level": 8815,
      "ster": 8816,
      "stick": 8817,
      "mel": 8818,
      "sem": 8819,
      "verse": 8820,
      "ician": 8821,
      "ghost": 8822,
      "webs": 8823,
      "rock": 8824,
      "汤姆不是": 8825,
      "ird": 8826,
      "Welcome": 8827,
      "appro": 8828,
      "shot": 8829,
      "suf": 8830,
      "boat": 8831,
      "save": 8832,
      "aught": 8833,
      "speed": 8834,
      "contain": 8835,
      "quar": 8836,
      "了一些": 8837,
      "wore": 8838,
      "ief": 8839,
      "ield": 8840,
      "sib": 8841,
      "这是一个": 8842,
      "feelings": 8843,
      "告诉你": 8844,
      "任何事": 8845,
      "staying": 8846,
      "fired": 8847,
      "你们的": 8848,
      "supper": 8849,
      "eleven": 8850,
      "Uni": 8851,
      "animal": 8852,
      "年轻人": 8853,
      "結婚了": 8854,
      "washing": 8855,
      "depend": 8856,
      "真正的": 8857,
      "culture": 8858,
      "temperature": 8859,
      "World": 8860,
      "Shanghai": 8861,
      "electric": 8862,
      "group": 8863,
      "intellig": 8864,
      "opportun": 8865,
      "knowledge": 8866,
      "阿尔及": 8867,
      "government": 8868,
      "extreme": 8869,
      "俄罗斯": 8870,
      "relax": 8871,
      "Am": 8872,
      "Alice": 8873,
      "Nor": 8874,
      "Time": 8875,
      "Xia": 8876,
      "ben": 8877,
      "bri": 8878,
      "da": 8879,
      "ians": 8880,
      "pu": 8881,
      "task": 8882,
      "ude": 8883,
      "中最": 8884,
      "你真": 8885,
      "六點": 8886,
      "博物": 8887,
      "发展": 8888,
      "叫我": 8889,
      "可惜": 8890,
      "吃早餐": 8891,
      "吸烟": 8892,
      "在我的": 8893,
      "士山": 8894,
      "外语": 8895,
      "大学生": 8896,
      "女士": 8897,
      "密斯": 8898,
      "富士山": 8899,
      "工程": 8900,
      "巴西": 8901,
      "平等": 8902,
      "建筑": 8903,
      "很高兴": 8904,
      "快点": 8905,
      "快點": 8906,
      "愚蠢": 8907,
      "我上": 8908,
      "我向": 8909,
      "我本": 8910,
      "我叔叔": 8911,
      "手機": 8912,
      "把他": 8913,
      "护士": 8914,
      "會兒": 8915,
      "有個": 8916,
      "服务": 8917,
      "独自": 8918,
      "瑞士": 8919,
      "的味道": 8920,
      "睡着": 8921,
      "紅色的": 8922,
      "終於": 8923,
      "結束": 8924,
      "絕對": 8925,
      "给她": 8926,
      "老虎": 8927,
      "而已": 8928,
      "這台": 8929,
      "這是一": 8930,
      "這件事": 8931,
      "進了": 8932,
      "那天": 8933,
      "重新": 8934,
      "饿了": 8935,
      "intention": 8936,
      "rely": 8937,
      "ony": 8938,
      "omen": 8939,
      "stars": 8940,
      "choose": 8941,
      "ices": 8942,
      "wet": 8943,
      "acy": 8944,
      "enty": 8945,
      "汤姆从": 8946,
      "mob": 8947,
      "ability": 8948,
      "within": 8949,
      "我们不": 8950,
      "我们需要": 8951,
      "nobody": 8952,
      "shut": 8953,
      "sharp": 8954,
      "ount": 8955,
      "astic": 8956,
      "saved": 8957,
      "ils": 8958,
      "spell": 8959,
      "whatever": 8960,
      "seemed": 8961,
      "muse": 8962,
      "rooms": 8963,
      "size": 8964,
      "明天会": 8965,
      "lots": 8966,
      "pregn": 8967,
      "standing": 8968,
      "planet": 8969,
      "teaches": 8970,
      "sooner": 8971,
      "skin": 8972,
      "告訴你": 8973,
      "picnic": 8974,
      "writer": 8975,
      "Frid": 8976,
      "Stay": 8977,
      "sounds": 8978,
      "distur": 8979,
      "picked": 8980,
      "太多了": 8981,
      "climb": 8982,
      "occur": 8983,
      "allowed": 8984,
      "anni": 8985,
      "terrible": 8986,
      "straight": 8987,
      "detail": 8988,
      "decision": 8989,
      "Fuji": 8990,
      "pizza": 8991,
      "Hu": 8992,
      "Long": 8993,
      "Mom": 8994,
      "Never": 8995,
      "blo": 8996,
      "cab": 8997,
      "cise": 8998,
      "dom": 8999,
      "dir": 9000,
      "een": 9001,
      "fing": 9002,
      "furn": 9003,
      "ghed": 9004,
      "har": 9005,
      "names": 9006,
      "page": 9007,
      "sand": 9008,
      "sco": 9009,
      "taught": 9010,
      "zer": 9011,
      "一句": 9012,
      "一輛": 9013,
      "丢了": 9014,
      "了那": 9015,
      "他能": 9016,
      "但我": 9017,
      "你没": 9018,
      "你還": 9019,
      "你認為": 9020,
      "停了": 9021,
      "出現": 9022,
      "可是": 9023,
      "史密斯": 9024,
      "吃完": 9025,
      "哪儿": 9026,
      "困難": 9027,
      "在了": 9028,
      "在他": 9029,
      "壞了": 9030,
      "外国人": 9031,
      "夜晚": 9032,
      "大部分": 9033,
      "女生": 9034,
      "她用": 9035,
      "安靜": 9036,
      "影响": 9037,
      "很棒": 9038,
      "性的": 9039,
      "我自己": 9040,
      "戰爭": 9041,
      "抽烟": 9042,
      "放弃": 9043,
      "整個": 9044,
      "會在": 9045,
      "来越": 9046,
      "杯咖啡": 9047,
      "根据": 9048,
      "检查": 9049,
      "点钟": 9050,
      "生病": 9051,
      "眼鏡": 9052,
      "肚子": 9053,
      "被人": 9054,
      "见面": 9055,
      "超过": 9056,
      "越来越": 9057,
      "車子": 9058,
      "週日": 9059,
      "週末": 9060,
      "野餐": 9061,
      "reed": 9062,
      "reach": 9063,
      "esti": 9064,
      "owe": 9065,
      "bell": 9066,
      "lift": 9067,
      "Hey": 9068,
      "wel": 9069,
      "weird": 9070,
      "汤姆想": 9071,
      "uses": 9072,
      "hig": 9073,
      "hill": 9074,
      "tears": 9075,
      "我们是": 9076,
      "holi": 9077,
      "anywhere": 9078,
      "apers": 9079,
      "plenty": 9080,
      "湯姆知道": 9081,
      "poison": 9082,
      "bother": 9083,
      "coho": 9084,
      "istic": 9085,
      "stone": 9086,
      "这个词": 9087,
      "工作了": 9088,
      "自己做": 9089,
      "afford": 9090,
      "rested": 9091,
      "talks": 9092,
      "tors": 9093,
      "boring": 9094,
      "我有很多": 9095,
      "airs": 9096,
      "personal": 9097,
      "serv": 9098,
      "employ": 9099,
      "中国人": 9100,
      "painting": 9101,
      "我也是": 9102,
      "tallest": 9103,
      "睡觉了": 9104,
      "streng": 9105,
      "多久了": 9106,
      "policeman": 9107,
      "current": 9108,
      "出生的": 9109,
      "是誰的": 9110,
      "Maria": 9111,
      "唯一的": 9112,
      "注意到": 9113,
      "event": 9114,
      "teaching": 9115,
      "永遠不會": 9116,
      "澳大利亞": 9117,
      "search": 9118,
      "Betty": 9119,
      "tradition": 9120,
      "According": 9121,
      "earthquake": 9122,
      "University": 9123,
      "pregnant": 9124,
      "Friday": 9125,
      "dirty": 9126,
      "45": 9127,
      "Aren": 9128,
      "Yanni": 9129,
      "bum": 9130,
      "cir": 9131,
      "ease": 9132,
      "iers": 9133,
      "ks": 9134,
      "lau": 9135,
      "mate": 9136,
      "por": 9137,
      "rot": 9138,
      "squ": 9139,
      "taste": 9140,
      "一步": 9141,
      "下去": 9142,
      "不出": 9143,
      "不幸": 9144,
      "不然": 9145,
      "不需要": 9146,
      "中午": 9147,
      "些什么": 9148,
      "他可能": 9149,
      "你打算": 9150,
      "做夢": 9151,
      "再也": 9152,
      "再来": 9153,
      "到的": 9154,
      "到老": 9155,
      "咱们": 9156,
      "在你": 9157,
      "增加": 9158,
      "士兵": 9159,
      "外套": 9160,
      "女性": 9161,
      "她喜欢": 9162,
      "好多": 9163,
      "娃娃": 9164,
      "学英语": 9165,
      "家的": 9166,
      "很美": 9167,
      "很大的": 9168,
      "意识": 9169,
      "我爸": 9170,
      "我應該": 9171,
      "我幾乎": 9172,
      "打棒球": 9173,
      "文件": 9174,
      "旅游": 9175,
      "早饭": 9176,
      "晚了": 9177,
      "會發生": 9178,
      "未來": 9179,
      "果汁": 9180,
      "洗了": 9181,
      "男生": 9182,
      "相当": 9183,
      "看著": 9184,
      "社会": 9185,
      "腳踏": 9186,
      "艺术": 9187,
      "行星": 9188,
      "見面": 9189,
      "討厭": 9190,
      "說的": 9191,
      "警告": 9192,
      "讓你": 9193,
      "试着": 9194,
      "说英语": 9195,
      "足够": 9196,
      "还没有": 9197,
      "这次": 9198,
      "這場": 9199,
      "這座": 9200,
      "遊戲": 9201,
      "邀請": 9202,
      "那不是": 9203,
      "那就是": 9204,
      "部電影": 9205,
      "開門": 9206,
      "anno": 9207,
      "oned": 9208,
      "asha": 9209,
      "organ": 9210,
      "argu": 9211,
      "chick": 9212,
      "wears": 9213,
      "acqu": 9214,
      "汤姆告诉我": 9215,
      "noticed": 9216,
      "我们会": 9217,
      "aked": 9218,
      "ending": 9219,
      "nose": 9220,
      "我不明白": 9221,
      "他的妻子": 9222,
      "ours": 9223,
      "没有什么": 9224,
      "However": 9225,
      "improve": 9226,
      "什麼都": 9227,
      "managed": 9228,
      "propos": 9229,
      "我在找": 9230,
      "offer": 9231,
      "asking": 9232,
      "rained": 9233,
      "buying": 9234,
      "mater": 9235,
      "feels": 9236,
      "告诉汤姆": 9237,
      "happens": 9238,
      "我知道你": 9239,
      "回家了": 9240,
      "bigger": 9241,
      "volu": 9242,
      "deser": 9243,
      "headache": 9244,
      "crit": 9245,
      "pressure": 9246,
      "发生什么": 9247,
      "美国人": 9248,
      "公司的": 9249,
      "energy": 9250,
      "我沒想": 9251,
      "tempt": 9252,
      "courage": 9253,
      "lawy": 9254,
      "expected": 9255,
      "结婚了": 9256,
      "Russia": 9257,
      "收音機": 9258,
      "middle": 9259,
      "Internet": 9260,
      "skiing": 9261,
      "India": 9262,
      "Algeria": 9263,
      "Happy": 9264,
      "protect": 9265,
      "website": 9266,
      "extremely": 9267,
      "museum": 9268,
      "laughed": 9269,
      "腳踏車": 9270,
      "13": 9271,
      "Bra": 9272,
      "Car": 9273,
      "Fin": 9274,
      "Li": 9275,
      "Mu": 9276,
      "Smo": 9277,
      "Spring": 9278,
      "Whe": 9279,
      "aunt": 9280,
      "cli": 9281,
      "dd": 9282,
      "dry": 9283,
      "duty": 9284,
      "fed": 9285,
      "hom": 9286,
      "ior": 9287,
      "ible": 9288,
      "kno": 9289,
      "mir": 9290,
      "ption": 9291,
      "sour": 9292,
      "上床": 9293,
      "下面": 9294,
      "不容易": 9295,
      "个人": 9296,
      "事了": 9297,
      "享受": 9298,
      "人類": 9299,
      "任务": 9300,
      "何時": 9301,
      "你太": 9302,
      "你什麼時候": 9303,
      "写信": 9304,
      "冷的": 9305,
      "前面": 9306,
      "十年": 9307,
      "受了": 9308,
      "只猫": 9309,
      "叫什么": 9310,
      "同學": 9311,
      "喝茶": 9312,
      "垃圾": 9313,
      "城堡": 9314,
      "大約": 9315,
      "她们": 9316,
      "嫉妒": 9317,
      "宇宙": 9318,
      "安静": 9319,
      "寫信": 9320,
      "對我來": 9321,
      "就去": 9322,
      "思考": 9323,
      "您能": 9324,
      "拒絕": 9325,
      "无论": 9326,
      "早起": 9327,
      "是最": 9328,
      "步行": 9329,
      "母語": 9330,
      "比爾": 9331,
      "沉默": 9332,
      "没什么": 9333,
      "流行": 9334,
      "点了": 9335,
      "然後": 9336,
      "爱情": 9337,
      "當你": 9338,
      "的时间": 9339,
      "的問題": 9340,
      "的男孩": 9341,
      "的语言": 9342,
      "的女人": 9343,
      "相机": 9344,
      "筆記": 9345,
      "聽起來": 9346,
      "见到你": 9347,
      "請把": 9348,
      "说得": 9349,
      "车站": 9350,
      "这场": 9351,
      "这部电影": 9352,
      "邀请": 9353,
      "那座": 9354,
      "鉛筆": 9355,
      "reached": 9356,
      "online": 9357,
      "erg": 9358,
      "orig": 9359,
      "seld": 9360,
      "alcoho": 9361,
      "ict": 9362,
      "forty": 9363,
      "forgive": 9364,
      "advis": 9365,
      "weak": 9366,
      "neare": 9367,
      "unhappy": 9368,
      "abs": 9369,
      "cel": 9370,
      "Well": 9371,
      "worst": 9372,
      "我們必須": 9373,
      "ional": 9374,
      "socks": 9375,
      "deter": 9376,
      "exc": 9377,
      "artic": 9378,
      "manager": 9379,
      "cture": 9380,
      "carried": 9381,
      "umn": 9382,
      "whose": 9383,
      "他是我的": 9384,
      "cially": 9385,
      "themselves": 9386,
      "这是我": 9387,
      "我一起": 9388,
      "diet": 9389,
      "compet": 9390,
      "我很高兴": 9391,
      "teachers": 9392,
      "mathematics": 9393,
      "這是我的": 9394,
      "believed": 9395,
      "我看到": 9396,
      "你最喜欢的": 9397,
      "supposed": 9398,
      "lazy": 9399,
      "president": 9400,
      "十分钟": 9401,
      "examination": 9402,
      "不同的": 9403,
      "比我大": 9404,
      "gives": 9405,
      "liter": 9406,
      "其他人": 9407,
      "sym": 9408,
      "relation": 9409,
      "很快就會": 9410,
      "flying": 9411,
      "bathroom": 9412,
      "climbed": 9413,
      "photograp": 9414,
      "certainly": 9415,
      "searched": 9416,
      "收音机": 9417,
      "refused": 9418,
      "characters": 9419,
      "graduated": 9420,
      "apologize": 9421,
      "responsible": 9422,
      "fifty": 9423,
      "professor": 9424,
      "recommend": 9425,
      "behavi": 9426,
      "mobile": 9427,
      "對我來說": 9428,
      "seldom": 9429,
      "500": 9430,
      "Ap": 9431,
      "Ho": 9432,
      "Per": 9433,
      "Wi": 9434,
      "aut": 9435,
      "cine": 9436,
      "cool": 9437,
      "dare": 9438,
      "drow": 9439,
      "hide": 9440,
      "nal": 9441,
      "oil": 9442,
      "ply": 9443,
      "stood": 9444,
      "tour": 9445,
      "uary": 9446,
      "uff": 9447,
      "yu": 9448,
      "不合": 9449,
      "也许": 9450,
      "了你的": 9451,
      "了這個": 9452,
      "他沒有": 9453,
      "你不是": 9454,
      "你现在": 9455,
      "俄羅": 9456,
      "信任": 9457,
      "做了一": 9458,
      "像个": 9459,
      "冰箱": 9460,
      "出的": 9461,
      "剩下": 9462,
      "勝過": 9463,
      "叫做": 9464,
      "吉姆": 9465,
      "子里": 9466,
      "它們": 9467,
      "安娜": 9468,
      "富有": 9469,
      "对于": 9470,
      "就好了": 9471,
      "工资": 9472,
      "度假": 9473,
      "待在": 9474,
      "得比": 9475,
      "感情": 9476,
      "感謝": 9477,
      "我正": 9478,
      "我还是": 9479,
      "我肯定": 9480,
      "我什么都": 9481,
      "我讨厌": 9482,
      "手錶": 9483,
      "把我": 9484,
      "支持": 9485,
      "敌人": 9486,
      "是世界上": 9487,
      "最终": 9488,
      "樣子": 9489,
      "正确": 9490,
      "每年": 9491,
      "毕业": 9492,
      "毫无": 9493,
      "活动": 9494,
      "活着": 9495,
      "浪費": 9496,
      "浪费": 9497,
      "犯罪": 9498,
      "玻璃": 9499,
      "班火車": 9500,
      "生物": 9501,
      "畢業": 9502,
      "看到了": 9503,
      "祖父": 9504,
      "程度": 9505,
      "程車": 9506,
      "穿着": 9507,
      "紧张": 9508,
      "纯素食": 9509,
      "给汤姆": 9510,
      "老了": 9511,
      "被偷了": 9512,
      "計程車": 9513,
      "跟著": 9514,
      "这本": 9515,
      "這兒": 9516,
      "通過": 9517,
      "過去": 9518,
      "遗憾": 9519,
      "都可以": 9520,
      "鄰居": 9521,
      "钓鱼": 9522,
      "陌生": 9523,
      "面前": 9524,
      "项目": 9525,
      "ouse": 9526,
      "anx": 9527,
      "theor": 9528,
      "orter": 9529,
      "stuck": 9530,
      "stairs": 9531,
      "metho": 9532,
      "bet": 9533,
      "beauty": 9534,
      "chi": 9535,
      "Help": 9536,
      "dozen": 9537,
      "tig": 9538,
      "wered": 9539,
      "activ": 9540,
      "entered": 9541,
      "ros": 9542,
      "汤姆不会": 9543,
      "unable": 9544,
      "irm": 9545,
      "moving": 9546,
      "tra": 9547,
      "tract": 9548,
      "decl": 9549,
      "delay": 9550,
      "cover": 9551,
      "exer": 9552,
      "audi": 9553,
      "bye": 9554,
      "没有任何": 9555,
      "conven": 9556,
      "quest": 9557,
      "artist": 9558,
      "stole": 9559,
      "proper": 9560,
      "friendly": 9561,
      "forever": 9562,
      "answered": 9563,
      "sia": 9564,
      "prepared": 9565,
      "我一点": 9566,
      "walks": 9567,
      "你不應該": 9568,
      "我看看": 9569,
      "kinds": 9570,
      "dressed": 9571,
      "房間裡": 9572,
      "發生了什麼": 9573,
      "paint": 9574,
      "一定會": 9575,
      "十分鐘": 9576,
      "这样的": 9577,
      "prize": 9578,
      "火车站": 9579,
      "最近的": 9580,
      "advant": 9581,
      "invented": 9582,
      "effort": 9583,
      "rule": 9584,
      "repair": 9585,
      "Read": 9586,
      "真是太": 9587,
      "不可能的": 9588,
      "evil": 9589,
      "准备好": 9590,
      "我從來": 9591,
      "永远不会": 9592,
      "admit": 9593,
      "legs": 9594,
      "depends": 9595,
      "belongs": 9596,
      "Leave": 9597,
      "流利的": 9598,
      "received": 9599,
      "message": 9600,
      "environ": 9601,
      "rarely": 9602,
      "大多数": 9603,
      "聖誕節": 9604,
      "magazine": 9605,
      "absolutely": 9606,
      "private": 9607,
      "potatoes": 9608,
      "Arabic": 9609,
      "proposal": 9610,
      "Braz": 9611,
      "nearest": 9612,
      "cinema": 9613,
      "俄羅斯": 9614,
      "environment": 9615,
      "Afr": 9616,
      "Col": 9617,
      "Dan": 9618,
      "Eat": 9619,
      "Fo": 9620,
      "Swit": 9621,
      "South": 9622,
      "Tur": 9623,
      "Wr": 9624,
      "ahead": 9625,
      "bom": 9626,
      "cash": 9627,
      "fur": 9628,
      "fond": 9629,
      "flies": 9630,
      "gal": 9631,
      "jam": 9632,
      "kick": 9633,
      "pa": 9634,
      "pity": 9635,
      "rass": 9636,
      "rots": 9637,
      "一口": 9638,
      "一片": 9639,
      "三次": 9640,
      "不吃": 9641,
      "不如": 9642,
      "也許": 9643,
      "乾淨": 9644,
      "互相": 9645,
      "从来": 9646,
      "他一": 9647,
      "他为": 9648,
      "他不會": 9649,
      "以外": 9650,
      "你自己": 9651,
      "倒了": 9652,
      "傑克": 9653,
      "全球": 9654,
      "几天": 9655,
      "出席": 9656,
      "去那裡": 9657,
      "只有一": 9658,
      "吃點": 9659,
      "同学": 9660,
      "周末": 9661,
      "嘗試": 9662,
      "坚持": 9663,
      "大量": 9664,
      "夫球": 9665,
      "她对": 9666,
      "好朋友": 9667,
      "子是": 9668,
      "学会": 9669,
      "就可以": 9670,
      "尼亚": 9671,
      "帮你": 9672,
      "幫你": 9673,
      "幾天": 9674,
      "幾點": 9675,
      "待多久": 9676,
      "很漂亮": 9677,
      "得太": 9678,
      "怎样": 9679,
      "我到": 9680,
      "我十": 9681,
      "我将": 9682,
      "我將": 9683,
      "我吃了": 9684,
      "我忘了": 9685,
      "我来自": 9686,
      "打擾": 9687,
      "护照": 9688,
      "教我": 9689,
      "是吗": 9690,
      "智慧": 9691,
      "暗示": 9692,
      "机场": 9693,
      "板上": 9694,
      "檢查": 9695,
      "歐洲": 9696,
      "正常": 9697,
      "比你": 9698,
      "沒想": 9699,
      "没见过": 9700,
      "法文": 9701,
      "洗碗": 9702,
      "熟悉": 9703,
      "爱好": 9704,
      "玩得很": 9705,
      "现代": 9706,
      "當然": 9707,
      "的成": 9708,
      "眼镜": 9709,
      "祝你": 9710,
      "禮貌": 9711,
      "秋天": 9712,
      "空氣": 9713,
      "米饭": 9714,
      "給她": 9715,
      "給我們": 9716,
      "老鼠": 9717,
      "而不是": 9718,
      "耳朵": 9719,
      "能夠": 9720,
      "行為": 9721,
      "裡有": 9722,
      "試著": 9723,
      "變得": 9724,
      "请把": 9725,
      "这座": 9726,
      "这把": 9727,
      "这首歌": 9728,
      "适合": 9729,
      "這位": 9730,
      "遇見": 9731,
      "過來": 9732,
      "骄傲": 9733,
      "黑色的": 9734,
      "influ": 9735,
      "instead": 9736,
      "retired": 9737,
      "request": 9738,
      "atch": 9739,
      "error": 9740,
      "arms": 9741,
      "eds": 9742,
      "vegan": 9743,
      "iture": 9744,
      "style": 9745,
      "chat": 9746,
      "alous": 9747,
      "aches": 9748,
      "cancer": 9749,
      "我们没": 9750,
      "hole": 9751,
      "我們可以": 9752,
      "我們沒有": 9753,
      "solved": 9754,
      "pol": 9755,
      "conv": 9756,
      "workers": 9757,
      "stock": 9758,
      "他们是": 9759,
      "proved": 9760,
      "els": 9761,
      "如果你不": 9762,
      "他是一個": 9763,
      "这是谁": 9764,
      "turns": 9765,
      "guest": 9766,
      "怎麼做": 9767,
      "学习很认真": 9768,
      "believes": 9769,
      "classroom": 9770,
      "members": 9771,
      "dreaming": 9772,
      "發生了": 9773,
      "laun": 9774,
      "contact": 9775,
      "From": 9776,
      "elev": 9777,
      "snowing": 9778,
      "commit": 9779,
      "aired": 9780,
      "begins": 9781,
      "giving": 9782,
      "西班牙語": 9783,
      "Bring": 9784,
      "我从来": 9785,
      "accepted": 9786,
      "Without": 9787,
      "Canadian": 9788,
      "decide": 9789,
      "那样做": 9790,
      "pleased": 9791,
      "suggestion": 9792,
      "不太好": 9793,
      "castle": 9794,
      "continu": 9795,
      "那樣做": 9796,
      "kilo": 9797,
      "危險的": 9798,
      "crowded": 9799,
      "character": 9800,
      "我所知": 9801,
      "dancing": 9802,
      "introduce": 9803,
      "supermarket": 9804,
      "tastes": 9805,
      "迷路了": 9806,
      "British": 9807,
      "notebook": 9808,
      "ghosts": 9809,
      "阿尔及利亚": 9810,
      "furniture": 9811,
      "strength": 9812,
      "chicken": 9813,
      "lawyer": 9814,
      "origin": 9815,
      "Afric": 9816,
      "Day": 9817,
      "Mus": 9818,
      "Mum": 9819,
      "None": 9820,
      "Sha": 9821,
      "Sus": 9822,
      "Tues": 9823,
      "bes": 9824,
      "brown": 9825,
      "cul": 9826,
      "due": 9827,
      "eld": 9828,
      "email": 9829,
      "fit": 9830,
      "hang": 9831,
      "ials": 9832,
      "iko": 9833,
      "lat": 9834,
      "mic": 9835,
      "mers": 9836,
      "py": 9837,
      "pal": 9838,
      "pack": 9839,
      "pool": 9840,
      "rat": 9841,
      "rap": 9842,
      "race": 9843,
      "sched": 9844,
      "。\"": 9845,
      "一條": 9846,
      "上你的": 9847,
      "不少": 9848,
      "丢了我的": 9849,
      "也會": 9850,
      "什麽": 9851,
      "他非常": 9852,
      "他不会": 9853,
      "价格": 9854,
      "传统": 9855,
      "伤害": 9856,
      "但卻": 9857,
      "你相信": 9858,
      "公斤": 9859,
      "写的": 9860,
      "別的": 9861,
      "周日": 9862,
      "喝點": 9863,
      "四月": 9864,
      "国外": 9865,
      "国际": 9866,
      "在中国": 9867,
      "太贵": 9868,
      "她想": 9869,
      "家具": 9870,
      "对吗": 9871,
      "尊重": 9872,
      "小偷": 9873,
      "幫我們": 9874,
      "干嘛": 9875,
      "座位": 9876,
      "很長": 9877,
      "总统": 9878,
      "悲伤": 9879,
      "想象": 9880,
      "我受": 9881,
      "我太": 9882,
      "我說": 9883,
      "我走": 9884,
      "我可能": 9885,
      "我通常": 9886,
      "我媽媽": 9887,
      "打扫": 9888,
      "拥有": 9889,
      "擅长": 9890,
      "故意": 9891,
      "整晚": 9892,
      "月球": 9893,
      "期望": 9894,
      "来到": 9895,
      "梦想": 9896,
      "樣的": 9897,
      "比起": 9898,
      "洗手": 9899,
      "準時": 9900,
      "滿意": 9901,
      "爆炸": 9902,
      "爱的": 9903,
      "猴子": 9904,
      "環境": 9905,
      "留在": 9906,
      "百分之": 9907,
      "的一个": 9908,
      "的食物": 9909,
      "看一下": 9910,
      "真好": 9911,
      "睡著": 9912,
      "笑话": 9913,
      "網站": 9914,
      "義大利": 9915,
      "老板": 9916,
      "聚会": 9917,
      "薩米": 9918,
      "要花": 9919,
      "规则": 9920,
      "請問": 9921,
      "试试": 9922,
      "辜的": 9923,
      "这事": 9924,
      "這把": 9925,
      "這間": 9926,
      "避免": 9927,
      "那是一": 9928,
      "閱讀": 9929,
      "问我": 9930,
      "雨伞": 9931,
      "電池": 9932,
      "餐厅": 9933,
      "ising": 9934,
      "issu": 9935,
      "aster": 9936,
      "ense": 9937,
      "arin": 9938,
      "arrested": 9939,
      "ically": 9940,
      "hates": 9941,
      "notice": 9942,
      "ama": 9943,
      "tered": 9944,
      "我的工作": 9945,
      "我的兄弟": 9946,
      "urs": 9947,
      "我们可以": 9948,
      "tray": 9949,
      "我們應該": 9950,
      "知道他": 9951,
      "我不懂": 9952,
      "dev": 9953,
      "demand": 9954,
      "ults": 9955,
      "ific": 9956,
      "conne": 9957,
      "convers": 9958,
      "shelf": 9959,
      "stomach": 9960,
      "他们说": 9961,
      "gotten": 9962,
      "了一整天": 9963,
      "spir": 9964,
      "很多人": 9965,
      "berries": 9966,
      "childhood": 9967,
      "calling": 9968,
      "这是个": 9969,
      "divor": 9970,
      "compli": 9971,
      "match": 9972,
      "chess": 9973,
      "cheaper": 9974,
      "starts": 9975,
      "starting": 9976,
      "星期五": 9977,
      "星期日": 9978,
      "awake": 9979,
      "這是你的": 9980,
      "有人吗": 9981,
      "descri": 9982,
      "Americans": 9983,
      "familiar": 9984,
      "sons": 9985,
      "在家里": 9986,
      "什么时候开始": 9987,
      "cookies": 9988,
      "成功的": 9989,
      "truck": 9990,
      "huge": 9991,
      "funny": 9992,
      "applic": 9993,
      "你看起来": 9994,
      "subway": 9995,
      "Chris": 9996,
      "forgotten": 9997,
      "traveling": 9998,
      "reply": 9999,
      "repaired": 10000,
      "soldiers": 10001,
      "jealous": 10002,
      "regular": 10003,
      "factory": 10004,
      "discussion": 10005,
      "silent": 10006,
      "一杯咖啡": 10007,
      "主义者": 10008,
      "正確的": 10009,
      "threw": 10010,
      "places": 10011,
      "pulled": 10012,
      "memory": 10013,
      "pronoun": 10014,
      "disappointed": 10015,
      "sembl": 10016,
      "intelligent": 10017,
      "opportunity": 10018,
      "ashamed": 10019,
      "acquain": 10020,
      "critic": 10021,
      "alcohol": 10022,
      "Tuesday": 10023,
      "conversation": 10024,
      "Jes": 10025,
      "Oc": 10026,
      "Ok": 10027,
      "Pro": 10028,
      "Sy": 10029,
      "Say": 10030,
      "ax": 10031,
      "bound": 10032,
      "bark": 10033,
      "cig": 10034,
      "fal": 10035,
      "fence": 10036,
      "field": 10037,
      "ging": 10038,
      "jacket": 10039,
      "obey": 10040,
      "pand": 10041,
      "phi": 10042,
      "pred": 10043,
      "rise": 10044,
      "som": 10045,
      "scar": 10046,
      "tend": 10047,
      "上看": 10048,
      "上個月": 10049,
      "中有": 10050,
      "也是": 10051,
      "也不要": 10052,
      "买的": 10053,
      "他向": 10054,
      "他住在": 10055,
      "他一直": 10056,
      "他總是": 10057,
      "以至": 10058,
      "会来": 10059,
      "來嗎": 10060,
      "來這裡": 10061,
      "傻瓜": 10062,
      "全世界": 10063,
      "凱特": 10064,
      "出去了": 10065,
      "利亞": 10066,
      "到我": 10067,
      "原谅": 10068,
      "吃的": 10069,
      "同事": 10070,
      "响了": 10071,
      "回到": 10072,
      "土豆": 10073,
      "坐下": 10074,
      "奶奶": 10075,
      "好主意": 10076,
      "婚了": 10077,
      "学了": 10078,
      "尊敬": 10079,
      "小了": 10080,
      "尝试": 10081,
      "就算": 10082,
      "年的": 10083,
      "廚房": 10084,
      "很高興": 10085,
      "感興趣": 10086,
      "我下": 10087,
      "我寧": 10088,
      "我認識": 10089,
      "我母亲": 10090,
      "拜访": 10091,
      "提琴": 10092,
      "整个": 10093,
      "新車": 10094,
      "新车": 10095,
      "明了": 10096,
      "星星": 10097,
      "是嗎": 10098,
      "有效": 10099,
      "有时": 10100,
      "未来": 10101,
      "来这里": 10102,
      "格兰": 10103,
      "每次": 10104,
      "渴望": 10105,
      "演唱": 10106,
      "物理": 10107,
      "班上": 10108,
      "用你的": 10109,
      "病人": 10110,
      "的城市": 10111,
      "目的": 10112,
      "看来": 10113,
      "石頭": 10114,
      "笔记": 10115,
      "等着": 10116,
      "給了我": 10117,
      "缺席": 10118,
      "网络": 10119,
      "自杀": 10120,
      "講話": 10121,
      "让人": 10122,
      "诚实": 10123,
      "语吗": 10124,
      "负责": 10125,
      "超市": 10126,
      "这不": 10127,
      "這不是": 10128,
      "造的": 10129,
      "邁克": 10130,
      "還有": 10131,
      "那位": 10132,
      "那時": 10133,
      "邻居": 10134,
      "错过了": 10135,
      "马路": 10136,
      "ined": 10137,
      "incl": 10138,
      "invo": 10139,
      "thief": 10140,
      "enem": 10141,
      "enced": 10142,
      "encour": 10143,
      "haps": 10144,
      "idence": 10145,
      "welcome": 10146,
      "entr": 10147,
      "usion": 10148,
      "amaz": 10149,
      "feed": 10150,
      "feet": 10151,
      "loso": 10152,
      "我们去": 10153,
      "hers": 10154,
      "hopes": 10155,
      "agreed": 10156,
      "我們去": 10157,
      "我們需要": 10158,
      "bored": 10159,
      "redu": 10160,
      "somebody": 10161,
      "conside": 10162,
      "constant": 10163,
      "worker": 10164,
      "pper": 10165,
      "这个工作": 10166,
      "assist": 10167,
      "igno": 10168,
      "玛丽说": 10169,
      "這個字": 10170,
      "bull": 10171,
      "的人口": 10172,
      "offic": 10173,
      "jokes": 10174,
      "我是一个": 10175,
      "怎么办": 10176,
      "明天會": 10177,
      "brush": 10178,
      "raw": 10179,
      "任何東西": 10180,
      "是一位": 10181,
      "friendship": 10182,
      "smiled": 10183,
      "星期六": 10184,
      "shoot": 10185,
      "所以我": 10186,
      "Before": 10187,
      "corner": 10188,
      "有人在": 10189,
      "embar": 10190,
      "century": 10191,
      "design": 10192,
      "Something": 10193,
      "那么做": 10194,
      "ference": 10195,
      "cycl": 10196,
      "一直在": 10197,
      "ctions": 10198,
      "share": 10199,
      "computers": 10200,
      "towards": 10201,
      "While": 10202,
      "回來了": 10203,
      "nature": 10204,
      "美國人": 10205,
      "去看電影": 10206,
      "effect": 10207,
      "離開了": 10208,
      "fallen": 10209,
      "normal": 10210,
      "最好的朋友": 10211,
      "steal": 10212,
      "failure": 10213,
      "followed": 10214,
      "growing": 10215,
      "crime": 10216,
      "成為一名": 10217,
      "Anna": 10218,
      "pleasure": 10219,
      "solution": 10220,
      "hiding": 10221,
      "continue": 10222,
      "deeply": 10223,
      "结束了": 10224,
      "video": 10225,
      "economy": 10226,
      "nonsense": 10227,
      "particular": 10228,
      "fixed": 10229,
      "stamps": 10230,
      "筆記本": 10231,
      "anxious": 10232,
      "advantage": 10233,
      "elevator": 10234,
      "Africa": 10235,
      "Jesus": 10236,
      "enemies": 10237,
      "considered": 10238,
      "embarrass": 10239,
      "7点": 10240,
      "AT": 10241,
      "Ask": 10242,
      "Hun": 10243,
      "June": 10244,
      "Lind": 10245,
      "Ma": 10246,
      "Mand": 10247,
      "Mex": 10248,
      "Pa": 10249,
      "Ste": 10250,
      "Uk": 10251,
      "Year": 10252,
      "aven": 10253,
      "bare": 10254,
      "bly": 10255,
      "bud": 10256,
      "dentist": 10257,
      "flight": 10258,
      "firm": 10259,
      "hum": 10260,
      "ium": 10261,
      "ky": 10262,
      "kil": 10263,
      "mit": 10264,
      "pment": 10265,
      "sort": 10266,
      "scold": 10267,
      "tally": 10268,
      "ured": 10269,
      "ya": 10270,
      "一种": 10271,
      "一間": 10272,
      "一本书": 10273,
      "上面": 10274,
      "不及": 10275,
      "不够": 10276,
      "不必": 10277,
      "不在家": 10278,
      "丟了": 10279,
      "之外": 10280,
      "了你": 10281,
      "仅仅": 10282,
      "他每天": 10283,
      "作者": 10284,
      "你呢": 10285,
      "你没有": 10286,
      "個人": 10287,
      "免费": 10288,
      "入了": 10289,
      "公寓": 10290,
      "公里": 10291,
      "再也不": 10292,
      "冰淇": 10293,
      "准时": 10294,
      "出發": 10295,
      "利用": 10296,
      "别再": 10297,
      "力量": 10298,
      "动了": 10299,
      "古典": 10300,
      "可愛": 10301,
      "因此": 10302,
      "報告": 10303,
      "報紙": 10304,
      "墨西": 10305,
      "外國": 10306,
      "大衣": 10307,
      "太空": 10308,
      "她会": 10309,
      "对方": 10310,
      "小提琴": 10311,
      "就在": 10312,
      "底下": 10313,
      "廁所": 10314,
      "得到了": 10315,
      "德語": 10316,
      "我請": 10317,
      "我认识": 10318,
      "我听到": 10319,
      "打破": 10320,
      "打高": 10321,
      "抓住": 10322,
      "持续": 10323,
      "放學": 10324,
      "教室": 10325,
      "新鲜": 10326,
      "方便": 10327,
      "旅館": 10328,
      "早点": 10329,
      "更新": 10330,
      "會說": 10331,
      "月亮": 10332,
      "有時": 10333,
      "有时候": 10334,
      "橙子": 10335,
      "機器": 10336,
      "死的": 10337,
      "消失": 10338,
      "点什么": 10339,
      "的路": 10340,
      "的问题": 10341,
      "的學生": 10342,
      "的情况": 10343,
      "盒子": 10344,
      "相反": 10345,
      "祖母": 10346,
      "科目": 10347,
      "空間": 10348,
      "結果": 10349,
      "經濟": 10350,
      "经验": 10351,
      "缺乏": 10352,
      "而言": 10353,
      "花瓶": 10354,
      "英里": 10355,
      "英国人": 10356,
      "街上": 10357,
      "襯衫": 10358,
      "見到": 10359,
      "見到你": 10360,
      "见你": 10361,
      "說得": 10362,
      "警方": 10363,
      "计算": 10364,
      "让汤姆": 10365,
      "请给我": 10366,
      "踢足球": 10367,
      "這次": 10368,
      "這附近": 10369,
      "這封信": 10370,
      "進步": 10371,
      "道理": 10372,
      "那家": 10373,
      "那就": 10374,
      "那时": 10375,
      "醒了": 10376,
      "錢包": 10377,
      "钢笔": 10378,
      "难以": 10379,
      "非洲": 10380,
      "顏色": 10381,
      "鼻子": 10382,
      "齊莉": 10383,
      "inves": 10384,
      "ancient": 10385,
      "tober": 10386,
      "totally": 10387,
      "ened": 10388,
      "aro": 10389,
      "eday": 10390,
      "espe": 10391,
      "stuff": 10392,
      "Then": 10393,
      "aret": 10394,
      "ico": 10395,
      "accusto": 10396,
      "roses": 10397,
      "汤姆知道": 10398,
      "amount": 10399,
      "tech": 10400,
      "cean": 10401,
      "load": 10402,
      "loss": 10403,
      "我们能": 10404,
      "我们都": 10405,
      "uts": 10406,
      "湯姆把": 10407,
      "ako": 10408,
      "upon": 10409,
      "shy": 10410,
      "degre": 10411,
      "poll": 10412,
      "coin": 10413,
      "ilar": 10414,
      "explan": 10415,
      "excuse": 10416,
      "button": 10417,
      "stories": 10418,
      "reser": 10419,
      "resident": 10420,
      "什麼嗎": 10421,
      "沒有甚麼": 10422,
      "bleed": 10423,
      "Isn": 10424,
      "如果我": 10425,
      "怎么回事": 10426,
      "昨天晚上": 10427,
      "brain": 10428,
      "clever": 10429,
      "我一天": 10430,
      "你不必": 10431,
      "happening": 10432,
      "....": 10433,
      "告訴湯姆": 10434,
      "因为他": 10435,
      "重要的是": 10436,
      "做了什么": 10437,
      "做了一個": 10438,
      "中国的": 10439,
      "treated": 10440,
      "elected": 10441,
      "universe": 10442,
      "他把他的": 10443,
      "回来的": 10444,
      "Once": 10445,
      "object": 10446,
      "obvious": 10447,
      "跟我說": 10448,
      "汤姆说玛丽": 10449,
      "出生在": 10450,
      "More": 10451,
      "谢谢你的": 10452,
      "休息一下": 10453,
      "西班牙语": 10454,
      "similar": 10455,
      "soul": 10456,
      "value": 10457,
      "oko": 10458,
      "surprise": 10459,
      "witch": 10460,
      "witter": 10461,
      "我還沒有": 10462,
      "caused": 10463,
      "的首都是": 10464,
      "admitted": 10465,
      "explained": 10466,
      "fashi": 10467,
      "politics": 10468,
      "很认真学习": 10469,
      "loudly": 10470,
      "gentle": 10471,
      "impression": 10472,
      "取消了": 10473,
      "fortunately": 10474,
      "rupt": 10475,
      "violin": 10476,
      "一会儿": 10477,
      "apartment": 10478,
      "vided": 10479,
      "relig": 10480,
      "suffer": 10481,
      "finger": 10482,
      "zerland": 10483,
      "traditional": 10484,
      "arguing": 10485,
      "behavior": 10486,
      "纯素食者": 10487,
      "陌生人": 10488,
      "theory": 10489,
      "Switzerland": 10490,
      "October": 10491,
      "false": 10492,
      "Mandarin": 10493,
      "Paul": 10494,
      "Ukrain": 10495,
      "kilome": 10496,
      "墨西哥": 10497,
      "especially": 10498,
      "accustomed": 10499,
      "degrees": 10500,
      "40": 10501,
      "CA": 10502,
      "Fe": 10503,
      "Mad": 10504,
      "Miss": 10505,
      "Port": 10506,
      "Sud": 10507,
      "Te": 10508,
      "Twitter": 10509,
      "Wang": 10510,
      "Winter": 10511,
      "bright": 10512,
      "equ": 10513,
      "fan": 10514,
      "ix": 10515,
      "ku": 10516,
      "ker": 10517,
      "lam": 10518,
      "mber": 10519,
      "path": 10520,
      "slight": 10521,
      "ux": 10522,
      "vit": 10523,
      "vase": 10524,
      "yed": 10525,
      "」。": 10526,
      "一份": 10527,
      "一支": 10528,
      "上升": 10529,
      "上课": 10530,
      "不住": 10531,
      "不知": 10532,
      "不行": 10533,
      "不可以": 10534,
      "个小时": 10535,
      "主人": 10536,
      "主義": 10537,
      "了吧": 10538,
      "他人": 10539,
      "他今天": 10540,
      "他已經": 10541,
      "他不知道": 10542,
      "但願": 10543,
      "作品": 10544,
      "你所": 10545,
      "你沒": 10546,
      "你已经": 10547,
      "借口": 10548,
      "做甚麼": 10549,
      "偶尔": 10550,
      "再见": 10551,
      "再说": 10552,
      "冒犯": 10553,
      "出国": 10554,
      "出國": 10555,
      "出现": 10556,
      "反了": 10557,
      "发烧": 10558,
      "只不過": 10559,
      "叫什麼": 10560,
      "后面": 10561,
      "吵架": 10562,
      "嘲笑": 10563,
      "在六": 10564,
      "地区": 10565,
      "地图": 10566,
      "她了": 10567,
      "季节": 10568,
      "安排": 10569,
      "害羞": 10570,
      "幽默": 10571,
      "开了": 10572,
      "往往": 10573,
      "很明": 10574,
      "很熱": 10575,
      "得很快": 10576,
      "心的": 10577,
      "您可以": 10578,
      "想吃": 10579,
      "意味": 10580,
      "感受": 10581,
      "我小": 10582,
      "我怕": 10583,
      "我為": 10584,
      "我回家": 10585,
      "我妈妈": 10586,
      "我买了": 10587,
      "我丢了我的": 10588,
      "戒烟": 10589,
      "手臂": 10590,
      "推荐": 10591,
      "收入": 10592,
      "无聊": 10593,
      "日文": 10594,
      "早點": 10595,
      "是日本": 10596,
      "最高的": 10597,
      "有了": 10598,
      "有用": 10599,
      "有錢": 10600,
      "有名的": 10601,
      "服務": 10602,
      "机器": 10603,
      "根據": 10604,
      "毛衣": 10605,
      "火災": 10606,
      "的所有": 10607,
      "的那个": 10608,
      "的方法": 10609,
      "的聲音": 10610,
      "目的是": 10611,
      "相比": 10612,
      "禮拜": 10613,
      "科學": 10614,
      "空气": 10615,
      "笨蛋": 10616,
      "第三": 10617,
      "給我的": 10618,
      "给我的": 10619,
      "老闆": 10620,
      "老朋友": 10621,
      "自豪": 10622,
      "蕾拉": 10623,
      "裡的": 10624,
      "誠實": 10625,
      "说谎": 10626,
      "责任": 10627,
      "趕上": 10628,
      "這份工作": 10629,
      "那隻": 10630,
      "酒吧": 10631,
      "錯的": 10632,
      "长的": 10633,
      "雜誌": 10634,
      "雨傘": 10635,
      "餐馆": 10636,
      "首先": 10637,
      "香蕉": 10638,
      "鼓励": 10639,
      "relie": 10640,
      "toma": 10641,
      "thin": 10642,
      "throw": 10643,
      "asing": 10644,
      "ordin": 10645,
      "lled": 10646,
      "esca": 10647,
      "separ": 10648,
      "oted": 10649,
      "chop": 10650,
      "formed": 10651,
      "actor": 10652,
      "汤姆对": 10653,
      "汤姆没": 10654,
      "汤姆要": 10655,
      "汤姆不想": 10656,
      "我的房子": 10657,
      "我的父母": 10658,
      "我们一起": 10659,
      "trick": 10660,
      "湯姆對": 10661,
      "湯姆很": 10662,
      "湯姆已經": 10663,
      "social": 10664,
      "我不相信": 10665,
      "你的名字": 10666,
      "不是真的": 10667,
      "我想吃": 10668,
      "我想和你": 10669,
      "shoulder": 10670,
      "了一下": 10671,
      "spare": 10672,
      "bug": 10673,
      "不要把": 10674,
      "我是你": 10675,
      "stands": 10676,
      "mark": 10677,
      "在哪裏": 10678,
      "compan": 10679,
      "Didn": 10680,
      "你在看": 10681,
      "是一名": 10682,
      "bedroom": 10683,
      "現在在": 10684,
      "smiling": 10685,
      "我有一个": 10686,
      "male": 10687,
      "sleeps": 10688,
      "finding": 10689,
      "classical": 10690,
      "greatest": 10691,
      "电话号码": 10692,
      "optim": 10693,
      "survi": 10694,
      "dreamed": 10695,
      "matters": 10696,
      "在那儿": 10697,
      "努力地": 10698,
      "努力工作": 10699,
      "traveled": 10700,
      "说话了": 10701,
      "miles": 10702,
      "年轻的时候": 10703,
      "costs": 10704,
      "north": 10705,
      "songs": 10706,
      "charge": 10707,
      "Remember": 10708,
      "fortune": 10709,
      "south": 10710,
      "foreigners": 10711,
      "wards": 10712,
      "okay": 10713,
      "climate": 10714,
      "請你把": 10715,
      "我爱你": 10716,
      "dropped": 10717,
      "值得一": 10718,
      "葡萄牙": 10719,
      "smells": 10720,
      "sells": 10721,
      "neighborhood": 10722,
      "政治家": 10723,
      "crowd": 10724,
      "receive": 10725,
      "圣诞节": 10726,
      "beyond": 10727,
      "gained": 10728,
      "software": 10729,
      "banan": 10730,
      "是我最喜歡的": 10731,
      "engineer": 10732,
      "princi": 10733,
      "communicate": 10734,
      "cott": 10735,
      "repeat": 10736,
      "strike": 10737,
      "daily": 10738,
      "睡着了": 10739,
      "史密斯先生": 10740,
      "holiday": 10741,
      "annoying": 10742,
      "Smoking": 10743,
      "autumn": 10744,
      "audience": 10745,
      "Write": 10746,
      "睡著了": 10747,
      "someday": 10748,
      "冰淇淋": 10749,
      "explanation": 10750,
[...]
